{
  "version": "1.0",
  "truncation": null,
  "padding": null,
  "added_tokens": [
    {
      "id": 0,
      "content": "<unk>",
      "single_word": false,
      "lstrip": false,
      "rstrip": false,
      "normalized": false,
      "special": true
    },
    {
      "id": 1,
      "content": "<s>",
      "single_word": false,
      "lstrip": false,
      "rstrip": false,
      "normalized": false,
      "special": true
    },
    {
      "id": 2,
      "content": "</s>",
      "single_word": false,
      "lstrip": false,
      "rstrip": false,
      "normalized": false,
      "special": true
    }
  ],
  "normalizer": null,
  "pre_tokenizer": {
    "type": "ByteLevel",
    "add_prefix_space": false,
    "trim_offsets": true,
    "use_regex": true
  },
  "post_processor": null,
  "decoder": {
    "type": "ByteLevel",
    "add_prefix_space": true,
    "trim_offsets": true,
    "use_regex": true
  },
  "model": {
    "type": "BPE",
    "dropout": null,
    "unk_token": null,
    "continuing_subword_prefix": null,
    "end_of_word_suffix": null,
    "fuse_unk": false,
    "byte_fallback": false,
    "ignore_merges": false,
    "vocab": {
      "<unk>": 0,
      "<s>": 1,
      "</s>": 2,
      "!": 3,
      "\"": 4,
      "#": 5,
      "$": 6,
      "%": 7,
      "&": 8,
      "'": 9,
      "(": 10,
      ")": 11,
      "*": 12,
      "+": 13,
      ",": 14,
      "-": 15,
      ".": 16,
      "/": 17,
      "0": 18,
      "1": 19,
      "2": 20,
      "3": 21,
      "4": 22,
      "5": 23,
      "6": 24,
      "7": 25,
      "8": 26,
      "9": 27,
      ":": 28,
      ";": 29,
      "<": 30,
      "=": 31,
      ">": 32,
      "?": 33,
      "@": 34,
      "A": 35,
      "B": 36,
      "C": 37,
      "D": 38,
      "E": 39,
      "F": 40,
      "G": 41,
      "H": 42,
      "I": 43,
      "J": 44,
      "K": 45,
      "L": 46,
      "M": 47,
      "N": 48,
      "O": 49,
      "P": 50,
      "Q": 51,
      "R": 52,
      "S": 53,
      "T": 54,
      "U": 55,
      "V": 56,
      "W": 57,
      "X": 58,
      "Y": 59,
      "Z": 60,
      "[": 61,
      "\\": 62,
      "]": 63,
      "^": 64,
      "_": 65,
      "`": 66,
      "a": 67,
      "b": 68,
      "c": 69,
      "d": 70,
      "e": 71,
      "f": 72,
      "g": 73,
      "h": 74,
      "i": 75,
      "j": 76,
      "k": 77,
      "l": 78,
      "m": 79,
      "n": 80,
      "o": 81,
      "p": 82,
      "q": 83,
      "r": 84,
      "s": 85,
      "t": 86,
      "u": 87,
      "v": 88,
      "w": 89,
      "x": 90,
      "y": 91,
      "z": 92,
      "{": 93,
      "|": 94,
      "}": 95,
      "~": 96,
      "¡": 97,
      "¢": 98,
      "£": 99,
      "¤": 100,
      "¥": 101,
      "¦": 102,
      "§": 103,
      "¨": 104,
      "©": 105,
      "ª": 106,
      "«": 107,
      "¬": 108,
      "®": 109,
      "¯": 110,
      "°": 111,
      "±": 112,
      "²": 113,
      "³": 114,
      "´": 115,
      "µ": 116,
      "¶": 117,
      "·": 118,
      "¸": 119,
      "¹": 120,
      "º": 121,
      "»": 122,
      "¼": 123,
      "½": 124,
      "¾": 125,
      "¿": 126,
      "À": 127,
      "Á": 128,
      "Â": 129,
      "Ã": 130,
      "Ä": 131,
      "Å": 132,
      "Æ": 133,
      "Ç": 134,
      "È": 135,
      "É": 136,
      "Ê": 137,
      "Ë": 138,
      "Ì": 139,
      "Í": 140,
      "Î": 141,
      "Ï": 142,
      "Ð": 143,
      "Ñ": 144,
      "Ò": 145,
      "Ó": 146,
      "Ô": 147,
      "Õ": 148,
      "Ö": 149,
      "×": 150,
      "Ø": 151,
      "Ù": 152,
      "Ú": 153,
      "Û": 154,
      "Ü": 155,
      "Ý": 156,
      "Þ": 157,
      "ß": 158,
      "à": 159,
      "á": 160,
      "â": 161,
      "ã": 162,
      "ä": 163,
      "å": 164,
      "æ": 165,
      "ç": 166,
      "è": 167,
      "é": 168,
      "ê": 169,
      "ë": 170,
      "ì": 171,
      "í": 172,
      "î": 173,
      "ï": 174,
      "ð": 175,
      "ñ": 176,
      "ò": 177,
      "ó": 178,
      "ô": 179,
      "õ": 180,
      "ö": 181,
      "÷": 182,
      "ø": 183,
      "ù": 184,
      "ú": 185,
      "û": 186,
      "ü": 187,
      "ý": 188,
      "þ": 189,
      "ÿ": 190,
      "Ā": 191,
      "ā": 192,
      "Ă": 193,
      "ă": 194,
      "Ą": 195,
      "ą": 196,
      "Ć": 197,
      "ć": 198,
      "Ĉ": 199,
      "ĉ": 200,
      "Ċ": 201,
      "ċ": 202,
      "Č": 203,
      "č": 204,
      "Ď": 205,
      "ď": 206,
      "Đ": 207,
      "đ": 208,
      "Ē": 209,
      "ē": 210,
      "Ĕ": 211,
      "ĕ": 212,
      "Ė": 213,
      "ė": 214,
      "Ę": 215,
      "ę": 216,
      "Ě": 217,
      "ě": 218,
      "Ĝ": 219,
      "ĝ": 220,
      "Ğ": 221,
      "ğ": 222,
      "Ġ": 223,
      "ġ": 224,
      "Ģ": 225,
      "ģ": 226,
      "Ĥ": 227,
      "ĥ": 228,
      "Ħ": 229,
      "ħ": 230,
      "Ĩ": 231,
      "ĩ": 232,
      "Ī": 233,
      "ī": 234,
      "Ĭ": 235,
      "ĭ": 236,
      "Į": 237,
      "į": 238,
      "İ": 239,
      "ı": 240,
      "Ĳ": 241,
      "ĳ": 242,
      "Ĵ": 243,
      "ĵ": 244,
      "Ķ": 245,
      "ķ": 246,
      "ĸ": 247,
      "Ĺ": 248,
      "ĺ": 249,
      "Ļ": 250,
      "ļ": 251,
      "Ľ": 252,
      "ľ": 253,
      "Ŀ": 254,
      "ŀ": 255,
      "Ł": 256,
      "ł": 257,
      "Ń": 258,
      "ä¸": 259,
      "ï¼": 260,
      "çļ": 261,
      "çļĦ": 262,
      "ï¼Į": 263,
      "ãĢ": 264,
      "ãĢĤ": 265,
      "äº": 266,
      "ä»": 267,
      "åı": 268,
      "æľ": 269,
      "è¿": 270,
      "æĪ": 271,
      "åħ": 272,
      "ä½": 273,
      "æĺ": 274,
      "å¤": 275,
      "è¯": 276,
      "ä¸Ģ": 277,
      "æĸ": 278,
      "å®": 279,
      "çĶ": 280,
      "åĪ": 281,
      "åĴ": 282,
      "åľ": 283,
      "åĴĮ": 284,
      "åĲ": 285,
      "åĬ": 286,
      "ç»": 287,
      "ä¹": 288,
      "æĺ¯": 289,
      "å°": 290,
      "åŃ": 291,
      "ä¸ª": 292,
      "ä»¥": 293,
      "è®": 294,
      "ãĢģ": 295,
      "æĪĳ": 296,
      "åľ¨": 297,
      "äºº": 298,
      "ĥ½": 299,
      "</": 300,
      "æľī": 301,
      "ï¼ļ": 302,
      "æĹ": 303,
      "äºĨ": 304,
      "åı¯": 305,
      "è¿Ļ": 306,
      "åĽ": 307,
      "æĿ": 308,
      "åº": 309,
      "éĩ": 310,
      "å¹": 311,
      "å¸": 312,
      "ä¸Ń": 313,
      "ä¼": 314,
      "éĢ": 315,
      "è¡": 316,
      "èĥ½": 317,
      "çļĦæ": 318,
      "åĩ": 319,
      "ãĢĤ</": 320,
      "å·": 321,
      "æĸĩ": 322,
      "åĮ": 323,
      "è¦": 324,
      "è¦ģ": 325,
      "é¢": 326,
      "å¯": 327,
      "å¾": 328,
      "åĨ": 329,
      "ä¸º": 330,
      "è§": 331,
      "å¥": 332,
      "çī": 333,
      "ç§": 334,
      "ä»¬": 335,
      "éĹ": 336,
      "çİ": 337,
      "å¼": 338,
      "ä¸į": 339,
      "çĶ¨": 340,
      "æķ": 341,
      "èĢ": 342,
      "å½": 343,
      "æĢ": 344,
      "æŀ": 345,
      "çĶŁ": 346,
      "çŃ": 347,
      "æı": 348,
      "æī": 349,
      "æŃ": 350,
      "åı¯ä»¥": 351,
      "éĿ": 352,
      "åį": 353,
      "Ġ<": 354,
      "ä¿": 355,
      "æĬ": 356,
      "æł": 357,
      "æ³": 358,
      "çĽ": 359,
      "âĢ": 360,
      "æĿ¥": 361,
      "èĩ": 362,
      "æĦ": 363,
      "åĵ": 364,
      "å¦": 365,
      "ä¸ĭ": 366,
      "çĲ": 367,
      "ä¸Ģä¸ª": 368,
      "æĪĲ": 369,
      "åİ": 370,
      "æĥ": 371,
      "æıĲ": 372,
      "æ°": 373,
      "åĪ°": 374,
      "ä»ĸ": 375,
      "æĽ": 376,
      "åŃ¦": 377,
      "æĻ": 378,
      "å¦Ĥ": 379,
      "è¡Į": 380,
      "åĩº": 381,
      "åĳ": 382,
      "å¿": 383,
      "æĹ¶": 384,
      "å¯¹": 385,
      "æĭ": 386,
      "ä½ł": 387,
      "åŃĲ": 388,
      "ä¾": 389,
      "äºİ": 390,
      "æİ": 391,
      "åľ°": 392,
      "é¢ĺ": 393,
      "ä¸Ĭ": 394,
      "ç«": 395,
      "æĶ": 396,
      "è´": 397,
      "å°ı": 398,
      "å¥½": 399,
      "ä¼ļ": 400,
      "çŃī": 401,
      "æĸ¹": 402,
      "æľ¬": 403,
      "èĩª": 404,
      "åĪĨ": 405,
      "æĽ´": 406,
      "äºĽ": 407,
      "å¤ļ": 408,
      "æµ": 409,
      "æ¯": 410,
      "èµ": 411,
      "å¤§": 412,
      "å±": 413,
      "æį": 414,
      "ï¼Ł": 415,
      "åĬ¨": 416,
      "ä½ľ": 417,
      "å·¥": 418,
      "çī©": 419,
      "çº": 420,
      "åħ³": 421,
      "è¾": 422,
      "å¹¶": 423,
      "åıĳ": 424,
      "ç®": 425,
      "æĮ": 426,
      "ç±": 427,
      "é£": 428,
      "éľ": 429,
      "æĪĳä»¬": 430,
      "éĿ¢": 431,
      "æ´": 432,
      "å®ļ": 433,
      "æľĢ": 434,
      "åħ¶": 435,
      "æŀľ": 436,
      "åŁ": 437,
      "æ¬": 438,
      "ç§į": 439,
      "çİ°": 440,
      "çļĦç": 441,
      "è¿Ľ": 442,
      "æ³ķ": 443,
      "éĻ": 444,
      "è¿ĩ": 445,
      "æĤ": 446,
      "éĹ®": 447,
      "åģ": 448,
      "æ¸": 449,
      "ä½ĵ": 450,
      "èī": 451,
      "å¤©": 452,
      "å®ĥ": 453,
      "æį®": 454,
      "ç»Ļ": 455,
      "åĬĽ": 456,
      "çĲĨ": 457,
      "æĺİ": 458,
      "éľĢ": 459,
      "æ²": 460,
      "å°Ĩ": 461,
      "åºĶ": 462,
      "åĬł": 463,
      "ç±»": 464,
      "æĸ°": 465,
      "éģ": 466,
      "çĤ": 467,
      "åĮĸ": 468,
      "æĢ§": 469,
      "çĦ": 470,
      "é«": 471,
      "åĲĮ": 472,
      "æĪĸ": 473,
      "ä½¿": 474,
      "åĽł": 475,
      "ä¿Ŀ": 476,
      "å¸¸": 477,
      "éĩį": 478,
      "çľ": 479,
      "é«ĺ": 480,
      "åı¥": 481,
      "è½": 482,
      "æĦŁ": 483,
      "å®¶": 484,
      "ä¹Ł": 485,
      "æľº": 486,
      "å½±": 487,
      "è¶": 488,
      "æ±": 489,
      "ä¸»": 490,
      "éĶ": 491,
      "éĺ": 492,
      "è¯Ń": 493,
      "çĦ¶": 494,
      "ç«ł": 495,
      "å¾Ĺ": 496,
      "âĢĿ": 497,
      "æķ°": 498,
      "æĸĩç«ł": 499,
      "éĢļ": 500,
      "åĵģ": 501,
      "âĢľ": 502,
      "ç³": 503,
      "éľĢè¦ģ": 504,
      "çĶµ": 505,
      "æĬĢ": 506,
      "æĻº": 507,
      "è°": 508,
      "è§£": 509,
      "æĸĩæľ¬": 510,
      "ä¹ĭ": 511,
      "ä¹Ī": 512,
      "æĥħ": 513,
      "æĤ¨": 514,
      "éĹ®é¢ĺ": 515,
      "åº¦": 516,
      "çŁ": 517,
      "èĢĮ": 518,
      "åī": 519,
      "æģ": 520,
      "è¡¨": 521,
      "ç»ı": 522,
      "æĻºèĥ½": 523,
      "è¯·": 524,
      "çĿ": 525,
      "å¾Ī": 526,
      "éĹ´": 527,
      "æŃ¤": 528,
      "èĬ": 529,
      "åĸ": 530,
      "ç¾": 531,
      "åħ¬": 532,
      "å¢": 533,
      "éĩı": 534,
      "åĽ½": 535,
      "ç©": 536,
      "çĤ¹": 537,
      "æľ¯": 538,
      "ç¤": 539,
      "èī²": 540,
      "èĤ": 541,
      "èĢħ": 542,
      "è¯į": 543,
      "å¹´": 544,
      "å®ŀ": 545,
      "æ°Ķ": 546,
      "å»": 547,
      "åĢ": 548,
      "åıĸ": 549,
      "ä¿¡": 550,
      "è¿Ļä¸ª": 551,
      "ä¹ł": 552,
      "åĲį": 553,
      "ç¨": 554,
      "å¿ĥ": 555,
      "ä½Ĩ": 556,
      "åĲĪ": 557,
      "æĦı": 558,
      "è¯¥": 559,
      "ä¸ļ": 560,
      "ä¾Ľ": 561,
      "çĸ": 562,
      "è®¡": 563,
      "åĲİ": 564,
      "ç¡": 565,
      "éĤ": 566,
      "äºĭ": 567,
      "æīĢ": 568,
      "ä»¥ä¸ĭ": 569,
      "ä»İ": 570,
      "è¿ĺ": 571,
      "å»º": 572,
      "æ®": 573,
      "çĽ¸": 574,
      "çĿĢ": 575,
      "çĲĥ": 576,
      "ä¸ĢäºĽ": 577,
      "éĥ½": 578,
      "åĮħ": 579,
      "æıĲä¾Ľ": 580,
      "æ´»": 581,
      "ä¸İ": 582,
      "ç¾İ": 583,
      "æł¹": 584,
      "è¿Ľè¡Į": 585,
      "æŁ": 586,
      "åı¥åŃĲ": 587,
      "ç½": 588,
      "å¼ı": 589,
      "é£Ł": 590,
      "åħ¥": 591,
      "å±ķ": 592,
      "åħ¨": 593,
      "éĩĮ": 594,
      "è¿°": 595,
      "äººå·¥": 596,
      "å¤ĸ": 597,
      "çİ¯": 598,
      "é¡": 599,
      "çķ": 600,
      "çī¹": 601,
      "ä½¿çĶ¨": 602,
      "æĥ³": 603,
      "ç´": 604,
      "éĿŀ": 605,
      "èĲ": 606,
      "é¦": 607,
      "äººå·¥æĻºèĥ½": 608,
      "ç¯": 609,
      "åĨħ": 610,
      "æŃ£": 611,
      "æ¡": 612,
      "è¢": 613,
      "éļ": 614,
      "å½ĵ": 615,
      "å¼Ģ": 616,
      "åİ»": 617,
      "éķ": 618,
      "æģ¯": 619,
      "æł¹æį®": 620,
      "æ°´": 621,
      "æ·": 622,
      "æ¯Ķ": 623,
      "åıĺ": 624,
      "åĨĻ": 625,
      "æ®µ": 626,
      "æĺ¯ä¸Ģ": 627,
      "åŀ": 628,
      "éĥ": 629,
      "ç³»": 630,
      "è·": 631,
      "åĬ©": 632,
      "èģ": 633,
      "è¯´": 634,
      "åŃ¦ä¹ł": 635,
      "ç¨ĭ": 636,
      "åĪ¶": 637,
      "åħ·": 638,
      "ç¡®": 639,
      "å¸Ĥ": 640,
      "è®©": 641,
      "ä»Ģ": 642,
      "éĽ": 643,
      "æĮģ": 644,
      "éģĵ": 645,
      "åĿ": 646,
      "çľĭ": 647,
      "ç¯ĩ": 648,
      "ç¼": 649,
      "äº§": 650,
      "èµ·": 651,
      "çĥ": 652,
      "ç»ĵ": 653,
      "åķ": 654,
      "ä»Ģä¹Ī": 655,
      "æĬĢæľ¯": 656,
      "å¸®": 657,
      "èº": 658,
      "åıĬ": 659,
      "è¯Ŀ": 660,
      "éĥ¨": 661,
      "çĽ®": 662,
      "éĤ£": 663,
      "èĭ": 664,
      "ç¬": 665,
      "ä½ķ": 666,
      "éķ¿": 667,
      "éĿŀå¸¸": 668,
      "èį": 669,
      "åĬ¡": 670,
      "ç®Ĺ": 671,
      "æ¯ı": 672,
      "èº«": 673,
      "çĭ": 674,
      "è¢«": 675,
      "åģ¥": 676,
      "ç§ĳ": 677,
      "æĹ¥": 678,
      "å°ĳ": 679,
      "å·±": 680,
      "åīį": 681,
      "åĻ": 682,
      "æĭ¬": 683,
      "éħ": 684,
      "éĢĤ": 685,
      "åĸľ": 686,
      "èĩªå·±": 687,
      "åľº": 688,
      "å®¹": 689,
      "åıĹ": 690,
      "åı¯èĥ½": 691,
      "æĹł": 692,
      "åĽŀ": 693,
      "æ¬¢": 694,
      "ä¿¡æģ¯": 695,
      "éĢī": 696,
      "ä»ĸä»¬": 697,
      "åĻ¨": 698,
      "åĮ»": 699,
      "äº¤": 700,
      "å¥½çļĦ": 701,
      "ä»£": 702,
      "åŀĭ": 703,
      "é¢Ĩ": 704,
      "åĪ«": 705,
      "èĻ": 706,
      "çł": 707,
      "å¤Ħ": 708,
      "çĶµå½±": 709,
      "çŃĶ": 710,
      "è¨": 711,
      "é¥": 712,
      "çĪ": 713,
      "éª": 714,
      "æ¶": 715,
      "ä½į": 716,
      "åĪ©": 717,
      "è´¨": 718,
      "æ»": 719,
      "è®®": 720,
      "é£İ": 721,
      "å¢ĥ": 722,
      "å¹³": 723,
      "ä¸¤": 724,
      "æ¡Ī": 725,
      "æīĭ": 726,
      "çĹ": 727,
      "å§": 728,
      "ä¾ĭ": 729,
      "è¿ĻäºĽ": 730,
      "éĩįè¦ģ": 731,
      "éĢļè¿ĩ": 732,
      "å¦Ĥæŀľ": 733,
      "ä¸ŃçļĦ": 734,
      "éŁ": 735,
      "ä»»": 736,
      "åĵį": 737,
      "ä»¶": 738,
      "çĶŁæĪĲ": 739,
      "åĮħæĭ¬": 740,
      "è®º": 741,
      "åŃĹ": 742,
      "åı¸": 743,
      "åŁŁ": 744,
      "åıĳå±ķ": 745,
      "è¨Ģ": 746,
      "çĻ": 747,
      "åºĶçĶ¨": 748,
      "å°ıæĺİ": 749,
      "å°±": 750,
      "æłĩ": 751,
      "ç®Ģ": 752,
      "æ±Ĥ": 753,
      "æ²¡": 754,
      "åĪĽ": 755,
      "åįķ": 756,
      "åĨ³": 757,
      "è§Ĥ": 758,
      "æĶ¹": 759,
      "æĶ¾": 760,
      "æİ¨": 761,
      "æ¸¸": 762,
      "èĪ": 763,
      "çģ": 764,
      "åıª": 765,
      "æľª": 766,
      "è®¾": 767,
      "å½±åĵį": 768,
      "çŁ¥": 769,
      "åº·": 770,
      "ç»Ł": 771,
      "æĹ¶éĹ´": 772,
      "ä¸ī": 773,
      "æĢ»": 774,
      "å¸®åĬ©": 775,
      "ç¥": 776,
      "æľŁ": 777,
      "é»": 778,
      "å£": 779,
      "åĸľæ¬¢": 780,
      "æº": 781,
      "ä¹Ĳ": 782,
      "èĬĤ": 783,
      "åħ¬åı¸": 784,
      "æıı": 785,
      "æķĪ": 786,
      "è¯Ĩ": 787,
      "åģ¥åº·": 788,
      "æµ·": 789,
      "æ¨": 790,
      "å¼º": 791,
      "å¤Ł": 792,
      "èĥ": 793,
      "ç»Ļå®ļ": 794,
      "ç¤¾": 795,
      "æĸŃ": 796,
      "åĩı": 797,
      "äººç±»": 798,
      "æĳ": 799,
      "æ³¨": 800,
      "æŀģ": 801,
      "å®ī": 802,
      "é¢ĨåŁŁ": 803,
      "çĶŁæ´»": 804,
      "æ¼": 805,
      "æľį": 806,
      "è¾¾": 807,
      "æ·±": 808,
      "çĶ±": 809,
      "æł·": 810,
      "çĸĹ": 811,
      "åĽłæŃ¤": 812,
      "çİ¯å¢ĥ": 813,
      "ä¸įåĲĮ": 814,
      "æŃ¥": 815,
      "å·¥ä½ľ": 816,
      "æĺŁ": 817,
      "è±": 818,
      "èĦ": 819,
      "é©": 820,
      "éŁ³": 821,
      "å¤ª": 822,
      "æķ°æį®": 823,
      "æµģ": 824,
      "å½¢": 825,
      "åİŁ": 826,
      "åģļ": 827,
      "ä¸ĸ": 828,
      "å·²": 829,
      "èİ": 830,
      "æıĲåıĸ": 831,
      "æĻ¯": 832,
      "è½¦": 833,
      "åıĭ": 834,
      "æııè¿°": 835,
      "æ²¡æľī": 836,
      "å¸¦": 837,
      "æĪ·": 838,
      "åĽłä¸º": 839,
      "å¯¼": 840,
      "è¿Ĳ": 841,
      "æ¬¡": 842,
      "åĳĺ": 843,
      "çĮ": 844,
      "ç²": 845,
      "éĴ": 846,
      "èı": 847,
      "å»ºè®®": 848,
      "æ¨¡": 849,
      "æĸĻ": 850,
      "éĶ®": 851,
      "æıĲé«ĺ": 852,
      "è¯ķ": 853,
      "èĩªçĦ¶": 854,
      "å®ĥä»¬": 855,
      "æī¾": 856,
      "ãĢĭ": 857,
      "åŁº": 858,
      "ãĢĬ": 859,
      "å¦Ĥä½ķ": 860,
      "è®¤": 861,
      "åİĨ": 862,
      "ä¹ī": 863,
      "åŁİ": 864,
      "æĽ´åĬł": 865,
      "å¥¹": 866,
      "ä¼ł": 867,
      "æºĲ": 868,
      "ä¸»è¦ģ": 869,
      "åĲĦ": 870,
      "åħ³éĶ®": 871,
      "ç¤º": 872,
      "æĬ¤": 873,
      "æĭ©": 874,
      "æĮĩ": 875,
      "åºĶè¯¥": 876,
      "åĲĳ": 877,
      "éĢł": 878,
      "æł¼": 879,
      "ç»Ħ": 880,
      "éĢīæĭ©": 881,
      "çķĮ": 882,
      "åħī": 883,
      "çļĦæķ": 884,
      "æĸ¹å¼ı": 885,
      "æĹħ": 886,
      "åĲĮæĹ¶": 887,
      "è¿ĳ": 888,
      "èĥ½å¤Ł": 889,
      "ç¯ĩæĸĩç«ł": 890,
      "èĲ½": 891,
      "ç©¶": 892,
      "è£": 893,
      "åĨħå®¹": 894,
      "è°ĥ": 895,
      "äººä»¬": 896,
      "åı£": 897,
      "çĪ±": 898,
      "ï¼Ľ": 899,
      "è¯Ńè¨Ģ": 900,
      "è§Ĩ": 901,
      "åĳ³": 902,
      "ç©º": 903,
      "çº¢": 904,
      "åĮº": 905,
      "èĢĥ": 906,
      "ä»·": 907,
      "åĲĹ": 908,
      "åħ³äºİ": 909,
      "çĬ": 910,
      "ç½ĳ": 911,
      "èĬ±": 912,
      "åĳĬ": 913,
      "æĺ¯ä¸Ģä¸ª": 914,
      "ä¾ĭå¦Ĥ": 915,
      "æľªæĿ¥": 916,
      "çĹħ": 917,
      "é¤": 918,
      "è®¡ç®Ĺ": 919,
      "å¿«": 920,
      "å¹¿": 921,
      "æľºåĻ¨": 922,
      "ç®¡": 923,
      "æĸ¹æ³ķ": 924,
      "æĸ¹éĿ¢": 925,
      "é¢Ħ": 926,
      "å¢ŀ": 927,
      "ï¼ī": 928,
      "åķĨ": 929,
      "éªĮ": 930,
      "é¤Ĳ": 931,
      "æĢĿ": 932,
      "Ķç©¶": 933,
      "ç¦": 934,
      "ä¹¦": 935,
      "ä¸Ķ": 936,
      "åĩĨ": 937,
      "å®Į": 938,
      "åĩł": 939,
      "é¦ĸ": 940,
      "éĵ": 941,
      "å®¢": 942,
      "éĶĻ": 943,
      "åĪ°äºĨ": 944,
      "é¡¹": 945,
      "åħ¶ä»ĸ": 946,
      "ä¼ĺ": 947,
      "è¶Ĭ": 948,
      "ä»¥åıĬ": 949,
      "ä¸»é¢ĺ": 950,
      "é¸": 951,
      "å¼ķ": 952,
      "éĩĳ": 953,
      "è®¸": 954,
      "è¯Ħ": 955,
      "æļ": 956,
      "æ¸ħ": 957,
      "åħĪ": 958,
      "ç´ł": 959,
      "åĬŁ": 960,
      "æ£": 961,
      "å¤ĩ": 962,
      "è½»": 963,
      "æİ¥": 964,
      "è§ī": 965,
      "åĪĹ": 966,
      "ï¼Ī": 967,
      "è¯»": 968,
      "èµĦ": 969,
      "æĪĺ": 970,
      "èĮ": 971,
      "åĪĨç±»": 972,
      "å§ĭ": 973,
      "ä»Ĭ": 974,
      "ä¸ªäºº": 975,
      "éĺ³": 976,
      "çŁŃ": 977,
      "èĩ´": 978,
      "åŃĺ": 979,
      "åĵª": 980,
      "æµĭ": 981,
      "æķĻ": 982,
      "æĢģ": 983,
      "æ¸©": 984,
      "ç»Ń": 985,
      "åĢĻ": 986,
      "ï¼ģ": 987,
      "æľĭ": 988,
      "æŀĲ": 989,
      "ç¼ĸ": 990,
      "ä¸ĸçķĮ": 991,
      "åħ±": 992,
      "ä½Ĩæĺ¯": 993,
      "åĲ«": 994,
      "æľĪ": 995,
      "èıľ": 996,
      "æľĭåıĭ": 997,
      "çº¦": 998,
      "åħĭ": 999,
      "ç§¯": 1000,
      "ç«ĭ": 1001,
      "çİĩ": 1002,
      "åĽŀçŃĶ": 1003,
      "æĸĩåĮĸ": 1004,
      "åĪĨæŀĲ": 1005,
      "å¤ĦçĲĨ": 1006,
      "åı²": 1007,
      "ç»Ĩ": 1008,
      "çļĦæĥ": 1009,
      "ä¸Ģä¸ĭ": 1010,
      "æĶ¯": 1011,
      "åĩıå°ĳ": 1012,
      "åŁİå¸Ĥ": 1013,
      "è±¡": 1014,
      "å±±": 1015,
      "ä¹ĭä¸Ģ": 1016,
      "è¶³": 1017,
      "è¿Ļç¯ĩæĸĩç«ł": 1018,
      "ä¸ŃåĽ½": 1019,
      "æķ´": 1020,
      "åĲ¦": 1021,
      "å¤į": 1022,
      "ç¬¬": 1023,
      "åĪĻ": 1024,
      "æ»¡": 1025,
      "åĨµ": 1026,
      "ä¿ĿæĬ¤": 1027,
      "çłĶç©¶": 1028,
      "ĺè¦ģ": 1029,
      "èĳ": 1030,
      "åħĥ": 1031,
      "è§Ĵ": 1032,
      "ç¥ŀ": 1033,
      "é¥®": 1034,
      "20": 1035,
      "å·²ç»ı": 1036,
      "åĥ": 1037,
      "æľĽ": 1038,
      "è®¸å¤ļ": 1039,
      "æİ¢": 1040,
      "äºĨä¸Ģ": 1041,
      "èĩªå·±çļĦ": 1042,
      "ä¸¤ä¸ª": 1043,
      "ç³ĸ": 1044,
      "éĩĩ": 1045,
      "åıį": 1046,
      "ç¿": 1047,
      "è°¢": 1048,
      "èĢģ": 1049,
      "äº§åĵģ": 1050,
      "çº¿": 1051,
      "åĪĴ": 1052,
      "è¾ĵ": 1053,
      "çľŁ": 1054,
      "åĮ»çĸĹ": 1055,
      "æŃ¤å¤ĸ": 1056,
      "çĭĹ": 1057,
      "ç³»ç»Ł": 1058,
      "æĽ´å¤ļ": 1059,
      "è§Ħ": 1060,
      "å°½": 1061,
      "éĢŁ": 1062,
      "åĶ": 1063,
      "çħ": 1064,
      "è¶£": 1065,
      "è·¯": 1066,
      "éĻ©": 1067,
      "å¥³": 1068,
      "åıĤ": 1069,
      "çļĦäºº": 1070,
      "èģĶ": 1071,
      "åĲĥ": 1072,
      "ä¿ĿæĮģ": 1073,
      "ä»½": 1074,
      "æĸ¯": 1075,
      "è¥": 1076,
      "åħ¨çĲĥ": 1077,
      "æĺ¯ä¸Ģç§į": 1078,
      "æĬ¥": 1079,
      "æĺĵ": 1080,
      "çĽ´": 1081,
      "åĬ¨çī©": 1082,
      "Â·": 1083,
      "æľįåĬ¡": 1084,
      "çĻ½": 1085,
      "å¤´": 1086,
      "åĢ¼": 1087,
      "è¥¿": 1088,
      "æĸ½": 1089,
      "è§£åĨ³": 1090,
      "æİĴ": 1091,
      "æĪĲä¸º": 1092,
      "ħäºĭ": 1093,
      "åĨį": 1094,
      "åĥı": 1095,
      "çĥŃ": 1096,
      "çİ¯ä¿Ŀ": 1097,
      "ä»ĭ": 1098,
      "åĽ¾": 1099,
      "æ´»åĬ¨": 1100,
      "å²": 1101,
      "éļ¾": 1102,
      "ä¹°": 1103,
      "ä¾¿": 1104,
      "åĳ¨": 1105,
      "çļĦä¸Ģ": 1106,
      "æŁ¥": 1107,
      "æĪĸèĢħ": 1108,
      "èİ·": 1109,
      "è¾ĥ": 1110,
      "èĻĳ": 1111,
      "æŀĦ": 1112,
      "æĿ¡": 1113,
      "ç¤¾ä¼ļ": 1114,
      "å®īåħ¨": 1115,
      "10": 1116,
      "è¿ĲåĬ¨": 1117,
      "è§ģ": 1118,
      "çīĩ": 1119,
      "åĲ¬": 1120,
      "èº«ä½ĵ": 1121,
      "ç»ĻæĪĳ": 1122,
      "è¯Ĺ": 1123,
      "åıĳçİ°": 1124,
      "èĩ³": 1125,
      "æĲ": 1126,
      "çļĦæĥħ": 1127,
      "æ¼Ķ": 1128,
      "éħį": 1129,
      "éļı": 1130,
      "åıĺåĮĸ": 1131,
      "çİ°åľ¨": 1132,
      "ãĢĤâĢĿ": 1133,
      "æīĵ": 1134,
      "ç§ĳæĬĢ": 1135,
      "åħ¶ä¸Ń": 1136,
      "ç»ĥ": 1137,
      "åºı": 1138,
      "æĶ¶": 1139,
      "çĬ¶": 1140,
      "è®¤ä¸º": 1141,
      "å¼ł": 1142,
      "èĤ²": 1143,
      "å¤©æ°Ķ": 1144,
      "ä¸½": 1145,
      "ç´¢": 1146,
      "éĤ£ä¹Ī": 1147,
      "æĪĳä»¬çļĦ": 1148,
      "åĳ½": 1149,
      "ä¹ĭéĹ´": 1150,
      "äº«": 1151,
      "æĬĬ": 1152,
      "ç²¾": 1153,
      "è®°": 1154,
      "æ¶Ī": 1155,
      "¹æŀľ": 1156,
      "æħ": 1157,
      "åħħ": 1158,
      "èĥ½åĬĽ": 1159,
      "çĽ¸åħ³": 1160,
      "èĭ¹æŀľ": 1161,
      "äºĮ": 1162,
      "ä½łçļĦ": 1163,
      "åİĨåı²": 1164,
      "æĶ¿": 1165,
      "åĲ¸": 1166,
      "å¾Īå¤ļ": 1167,
      "åı¤": 1168,
      "çŃĸ": 1169,
      "å¡": 1170,
      "å¸¦æĿ¥": 1171,
      "çı": 1172,
      "æ¤": 1173,
      "æĳĺè¦ģ": 1174,
      "åĽŃ": 1175,
      "åħ·æľī": 1176,
      "è´Ń": 1177,
      "ç¢": 1178,
      "åħ´": 1179,
      "éĺŁ": 1180,
      "å¸Ī": 1181,
      "ä½İ": 1182,
      "çĮ«": 1183,
      "å¤±": 1184,
      "éĹ¨": 1185,
      "æ¬¾": 1186,
      "ç»´": 1187,
      "æ²»": 1188,
      "åį³": 1189,
      "ç»Ļå®ļçļĦ": 1190,
      "éĹ»": 1191,
      "ç§ĳåŃ¦": 1192,
      "ç§°": 1193,
      "å¸ĥ": 1194,
      "æ¢": 1195,
      "çĭ¬": 1196,
      "åħį": 1197,
      "æŃĮ": 1198,
      "è¯ī": 1199,
      "éĩĬ": 1200,
      "äºĴ": 1201,
      "èįĲ": 1202,
      "åĭ": 1203,
      "éŁ³ä¹Ĳ": 1204,
      "ç»Ļåĩº": 1205,
      "å°Ŀ": 1206,
      "çļĦæĦ": 1207,
      "¦Ĥ": 1208,
      "çŃĶæ¡Ī": 1209,
      "æīį": 1210,
      "æĿĲ": 1211,
      "è¿Ļç§į": 1212,
      "è®¾è®¡": 1213,
      "ç§¯æŀģ": 1214,
      "ç»į": 1215,
      "å¼Ģå§ĭ": 1216,
      "ä»»åĬ¡": 1217,
      "èĲ¥": 1218,
      "æĿ¾": 1219,
      "äºĨè§£": 1220,
      "éĽĨ": 1221,
      "è¡¨è¾¾": 1222,
      "ä»ĭç»į": 1223,
      "ä¸ŃæıĲåıĸ": 1224,
      "åı¥è¯Ŀ": 1225,
      "çļĦå½±åĵį": 1226,
      "å¯¼èĩ´": 1227,
      "å¯Į": 1228,
      "è¯¯": 1229,
      "åŃ£": 1230,
      "å¿ħ": 1231,
      "å¨": 1232,
      "èĽ": 1233,
      "å¯¹äºİ": 1234,
      "æ¨¡åŀĭ": 1235,
      "åħ·ä½ĵ": 1236,
      "è®¡ç®Ĺæľº": 1237,
      "èĭ±": 1238,
      "çĶ·": 1239,
      "æĥħæĦŁ": 1240,
      "æľºåĻ¨åŃ¦ä¹ł": 1241,
      "çĲĨè§£": 1242,
      "æİ¨èįĲ": 1243,
      "çļĦæĬ": 1244,
      "è½¬": 1245,
      "å®ŀçİ°": 1246,
      "æľĢè¿ĳ": 1247,
      "æĸ°çļĦ": 1248,
      "æĺ¯åĲ¦": 1249,
      "éĢļå¸¸": 1250,
      "åı·": 1251,
      "åįĩ": 1252,
      "åİĭ": 1253,
      "è®¨": 1254,
      "é¦Ļ": 1255,
      "éĻ¤": 1256,
      "èµĽ": 1257,
      "è®²": 1258,
      "åĬ¿": 1259,
      "ä¸ĵ": 1260,
      "ä»Ĭå¤©": 1261,
      "æĽ´å¥½": 1262,
      "èĤī": 1263,
      "é²": 1264,
      "åĮĹ": 1265,
      "ä¸įæĸŃ": 1266,
      "åĲĦç§į": 1267,
      "ä¿®": 1268,
      "æĿİ": 1269,
      "è´¹": 1270,
      "é»ĳ": 1271,
      "éĶĢ": 1272,
      "æ°ĳ": 1273,
      "åľ°çĲĥ": 1274,
      "è®¡åĪĴ": 1275,
      "å¸Ĥåľº": 1276,
      "è£ħ": 1277,
      "åįİ": 1278,
      "æĪı": 1279,
      "åįģ": 1280,
      "åħ³éĶ®è¯į": 1281,
      "åĳĬè¯ī": 1282,
      "è¯ģ": 1283,
      "æŁĵ": 1284,
      "åħ»": 1285,
      "çļĦéĹ®é¢ĺ": 1286,
      "æīĢæľī": 1287,
      "ä¸Ģæ®µ": 1288,
      "é©¬": 1289,
      "èħ": 1290,
      "åĸĦ": 1291,
      "åĽ´": 1292,
      "æīĢä»¥": 1293,
      "çĶ¨æĪ·": 1294,
      "æ³¨æĦı": 1295,
      "èīº": 1296,
      "æĻļ": 1297,
      "ç»Ī": 1298,
      "æĪĳçļĦ": 1299,
      "åįķè¯į": 1300,
      "å¯»": 1301,
      "è¯ĨåĪ«": 1302,
      "éĢĤåĲĪ": 1303,
      "å¤ı": 1304,
      "ä¸Ģèµ·": 1305,
      "æİ§": 1306,
      "ç¦»": 1307,
      "å¸Į": 1308,
      "æŃ£åľ¨": 1309,
      "çª": 1310,
      "AI": 1311,
      "æĪĳä»¬åı¯ä»¥": 1312,
      "èĳĹ": 1313,
      "å¾ĭ": 1314,
      "éĻħ": 1315,
      "éĺ²": 1316,
      "æĸ°éĹ»": 1317,
      "æ¯Ķå¦Ĥ": 1318,
      "è¶ħ": 1319,
      "ä»ĸçļĦ": 1320,
      "åĽĽ": 1321,
      "è¿ľ": 1322,
      "å¤ªéĺ³": 1323,
      "åŃ©": 1324,
      "è¦ģæ±Ĥ": 1325,
      "çŁ¥éģĵ": 1326,
      "çļĦæĺ¯": 1327,
      "æĹłæ³ķ": 1328,
      "å°Ķ": 1329,
      "å¹¶ä¸Ķ": 1330,
      "ä¸Ģç§į": 1331,
      "å·§": 1332,
      "æĦŁåĪ°": 1333,
      "æŀĹ": 1334,
      "æ³Ľ": 1335,
      "å£°": 1336,
      "æĴ": 1337,
      "èµ°": 1338,
      "åĳ¢": 1339,
      "åħ³ç³»": 1340,
      "æŁĲ": 1341,
      "å°ıè¯´": 1342,
      "çĦ¶åĲİ": 1343,
      "åı¦": 1344,
      "ä»ħ": 1345,
      "ï¼ļâĢľ": 1346,
      "è´Ł": 1347,
      "æĹħæ¸¸": 1348,
      "è¿ĩç¨ĭ": 1349,
      "åįĹ": 1350,
      "æ¯ıä¸ª": 1351,
      "å£«": 1352,
      "ç½®": 1353,
      "åŃĺåľ¨": 1354,
      "æĢ»ç»ĵ": 1355,
      "å¤§çļĦ": 1356,
      "åİħ": 1357,
      "èģĮ": 1358,
      "è§£éĩĬ": 1359,
      "èĢĥèĻĳ": 1360,
      "å¾·": 1361,
      "æĪĲåĬŁ": 1362,
      "æĭī": 1363,
      "è´¨éĩı": 1364,
      "è¾¹": 1365,
      "æĹ©": 1366,
      "çļĦæ°": 1367,
      "ç®¡çĲĨ": 1368,
      "éĻį": 1369,
      "èĽĭ": 1370,
      "çļĦæĢ": 1371,
      "åŃ¦çĶŁ": 1372,
      "æĺ¾": 1373,
      "ĳæĪĺ": 1374,
      "åĦ": 1375,
      "æĪ¿": 1376,
      "çŃīçŃī": 1377,
      "èŀ": 1378,
      "ªæĸ½": 1379,
      "æ®µèĲ½": 1380,
      "è¡Įä¸º": 1381,
      "ç¾İåĽ½": 1382,
      "ä¸ľ": 1383,
      "æĪĳæĥ³": 1384,
      "éĶĻè¯¯": 1385,
      "åĮ»çĶŁ": 1386,
      "å¢ŀåĬł": 1387,
      "ä¸Ģç¯ĩ": 1388,
      "è¾ĳ": 1389,
      "çĨ": 1390,
      "ä¼¼": 1391,
      "å°Ŀè¯ķ": 1392,
      "äºĶ": 1393,
      "çħ§": 1394,
      "å¯¹è¯Ŀ": 1395,
      "å®ĮæĪĲ": 1396,
      "æ¦Ĥ": 1397,
      "å¯Ĩ": 1398,
      "çİ©": 1399,
      "æĺ¯ä»Ģä¹Ī": 1400,
      "å¹¿æ³Ľ": 1401,
      "ç±³": 1402,
      "ä¸ĭéĿ¢": 1403,
      "ä½ľä¸º": 1404,
      "åĪ©çĶ¨": 1405,
      "çĶ»": 1406,
      "è¿Ļæ®µ": 1407,
      "ä¸įåĲĮçļĦ": 1408,
      "çģ«": 1409,
      "èĩªåĬ¨": 1410,
      "æľĢåĲİ": 1411,
      "é¥®é£Ł": 1412,
      "æĭ¥": 1413,
      "æļĸ": 1414,
      "çİĭ": 1415,
      "éģ¿": 1416,
      "åĴĸ": 1417,
      "å½ĵçĦ¶": 1418,
      "æ¿": 1419,
      "é£Łçī©": 1420,
      "è®Ń": 1421,
      "çļĦåıĳå±ķ": 1422,
      "å®³": 1423,
      "å¾ĹåĪ°": 1424,
      "æµİ": 1425,
      "åı°": 1426,
      "æĽ´å¥½åľ°": 1427,
      "åĽ¢": 1428,
      "ç¡®ä¿Ŀ": 1429,
      "å¿µ": 1430,
      "åı¯èĥ½ä¼ļ": 1431,
      "çļĦåľ°": 1432,
      "çļĦæķ°": 1433,
      "ä¼ģ": 1434,
      "çļĦä¿¡æģ¯": 1435,
      "ãĢĤ\\": 1436,
      "ä»»ä½ķ": 1437,
      "æ°ĶåĢĻ": 1438,
      "äºļ": 1439,
      "ç®Ĺæ³ķ": 1440,
      "åķ¡": 1441,
      "èŀį": 1442,
      "çļĦåºĶçĶ¨": 1443,
      "äº¬": 1444,
      "ä¸įæĺ¯": 1445,
      "æłĩé¢ĺ": 1446,
      "äº§çĶŁ": 1447,
      "éĻĲ": 1448,
      "æĤ¨çļĦ": 1449,
      "åĴĸåķ¡": 1450,
      "æĥħåĨµ": 1451,
      "æ´ģ": 1452,
      "æĵ": 1453,
      "å®¤": 1454,
      "å¸ĮæľĽ": 1455,
      "æķħäºĭ": 1456,
      "èįī": 1457,
      "èİ·å¾Ĺ": 1458,
      "æį¢": 1459,
      "è¿ĺæľī": 1460,
      "åł": 1461,
      "éĽ¨": 1462,
      "äººçļĦ": 1463,
      "ç»ľ": 1464,
      "äº¤éĢļ": 1465,
      "æĢİ": 1466,
      "å·´": 1467,
      "è¾ĵåħ¥": 1468,
      "çĽ®æłĩ": 1469,
      "åĦ¿": 1470,
      "ç»ıæµİ": 1471,
      "è¿Ļæł·": 1472,
      "çĶŁæĪĲä¸Ģä¸ª": 1473,
      "å¹²": 1474,
      "é»Ħ": 1475,
      "è¡¨ç¤º": 1476,
      "é¦ĸåħĪ": 1477,
      "çĶ¨äºİ": 1478,
      "åı¯ä»¥å¸®åĬ©": 1479,
      "éħĴ": 1480,
      "è¡£": 1481,
      "é£ŀ": 1482,
      "éĥ½æĺ¯": 1483,
      "ç³ĸæŀľ": 1484,
      "ä¼Ĺ": 1485,
      "å¾ģ": 1486,
      "æľīæķĪ": 1487,
      "é¤Ĳåİħ": 1488,
      "çļĦä¸»è¦ģ": 1489,
      "ä½łåı¯ä»¥": 1490,
      "éĺħ": 1491,
      "åĮħåĲ«": 1492,
      "çīĽ": 1493,
      "çļĦæł": 1494,
      "ç©¿": 1495,
      "åºĹ": 1496,
      "æĹħè¡Į": 1497,
      "æī¾åĪ°": 1498,
      "å¾Ģ": 1499,
      "æķĻèĤ²": 1500,
      "å±ŀ": 1501,
      "åºŃ": 1502,
      "ç»ĵæŀľ": 1503,
      "ç®Ģåįķ": 1504,
      "¡æŁĵ": 1505,
      "éľĢæ±Ĥ": 1506,
      "æ¸¸æĪı": 1507,
      "æ¿Ģ": 1508,
      "çļĦéĩįè¦ģ": 1509,
      "éĥ¨åĪĨ": 1510,
      "éº": 1511,
      "åĳĬè¯īæĪĳ": 1512,
      "ä½¿åħ¶": 1513,
      "åĿĩ": 1514,
      "éģ¿åħį": 1515,
      "éĩĩåıĸ": 1516,
      "æ©": 1517,
      "å±ħ": 1518,
      "æ½": 1519,
      "è§ĤçĤ¹": 1520,
      "åĩłä¸ª": 1521,
      "æİªæĸ½": 1522,
      "ç½ĳç»ľ": 1523,
      "åĪ¶ä½ľ": 1524,
      "çīĮ": 1525,
      "åĩĨç¡®": 1526,
      "ä¹Łæĺ¯": 1527,
      "æľīåħ³": 1528,
      "å¾®": 1529,
      "ä»¤": 1530,
      "äºī": 1531,
      "æĮģç»Ń": 1532,
      "æĶ¯æĮģ": 1533,
      "èĥ½æºĲ": 1534,
      "ä¸ĩ": 1535,
      "ä½ĵéªĮ": 1536,
      "åª": 1537,
      "é±": 1538,
      "èµ·æĿ¥": 1539,
      "äºĨä¸Ģä¸ª": 1540,
      "é±¼": 1541,
      "ä½ľçĶ¨": 1542,
      "åī§": 1543,
      "ä¼ģä¸ļ": 1544,
      "è¡¨çİ°": 1545,
      "éĩįè¦ģçļĦ": 1546,
      "ç«Ļ": 1547,
      "ç»¿": 1548,
      "ä¸įèĥ½": 1549,
      "çĽĬ": 1550,
      "é¼": 1551,
      "çĳ": 1552,
      "æłĳ": 1553,
      "åıĳçĶŁ": 1554,
      "ä»ĸä»¬çļĦ": 1555,
      "ä¹Łåı¯ä»¥": 1556,
      "00": 1557,
      "èĵ": 1558,
      "èī¯": 1559,
      "éĺħè¯»": 1560,
      "åĪĩ": 1561,
      "å°ıçº¢": 1562,
      "èĩªçĦ¶è¯Ńè¨Ģ": 1563,
      "æ¤į": 1564,
      "¾çĹħ": 1565,
      "é¾": 1566,
      "çĶ±äºİ": 1567,
      "çİ°ä»£": 1568,
      "ä¸īä¸ª": 1569,
      "å¤ľ": 1570,
      "åĵªäºĽ": 1571,
      "åĪ¤": 1572,
      "ç¤¾äº¤": 1573,
      "å®Ŀ": 1574,
      "å¾ħ": 1575,
      "ç¬¦": 1576,
      "æ²¹": 1577,
      "æĭ¥æľī": 1578,
      "åŁºäºİ": 1579,
      "å¥¶": 1580,
      "âĢĿï¼Į": 1581,
      "æ¹": 1582,
      "åĬłåħ¥": 1583,
      "åħ³æ³¨": 1584,
      "çº§": 1585,
      "å¥ĩ": 1586,
      "è¿ĺæĺ¯": 1587,
      "èī²çļĦ": 1588,
      "ç»ĩ": 1589,
      "è¯Ĭ": 1590,
      "æ±¡æŁĵ": 1591,
      "åıĪ": 1592,
      "å¦Ĥæŀľä½ł": 1593,
      "é¢ľ": 1594,
      "éģĩ": 1595,
      "åĬª": 1596,
      "ä¸¾": 1597,
      "åºľ": 1598,
      "ï¼Ł</": 1599,
      "åĿĹ": 1600,
      "é¦Ĩ": 1601,
      "åĩºçİ°": 1602,
      "è¿ŀ": 1603,
      "çļĦæĸĩç«ł": 1604,
      "ä¸°": 1605,
      "é¸¡": 1606,
      "ç±»åŀĭ": 1607,
      "ä»¥ä¸ĭåı¥åŃĲ": 1608,
      "ç¡®å®ļ": 1609,
      "åĪ»": 1610,
      "å®¶åºŃ": 1611,
      "æĮĳæĪĺ": 1612,
      "æĺ¥": 1613,
      "å®¢æĪ·": 1614,
      "èµĦæºĲ": 1615,
      "çļĦæİ": 1616,
      "åĬªåĬĽ": 1617,
      "åĶ®": 1618,
      "è½¯": 1619,
      "ç¿»": 1620,
      "èĪĴ": 1621,
      "èį¯": 1622,
      "è®Ńç»ĥ": 1623,
      "æİ§åĪ¶": 1624,
      "èĻ½": 1625,
      "æľīè¶£": 1626,
      "éĿĻ": 1627,
      "æĢ§åĴĮ": 1628,
      "æķ£": 1629,
      "è¿½": 1630,
      "åĬŁèĥ½": 1631,
      "è¿Ļæĺ¯": 1632,
      "ä»İèĢĮ": 1633,
      "èĦĳ": 1634,
      "çļĦæĬĢ": 1635,
      "æŃ£ç¡®": 1636,
      "åıĹåĪ°": 1637,
      "æĸ¹æ¡Ī": 1638,
      "çļĦåı¥åŃĲ": 1639,
      "çļĦæĻ": 1640,
      "ä¸ºäºĨ": 1641,
      "ç§ĭ": 1642,
      "é¸Ł": 1643,
      "æ£Ģ": 1644,
      "ä¸¥": 1645,
      "æĬķ": 1646,
      "éŃ": 1647,
      "èŃ": 1648,
      "è§Ĵèī²": 1649,
      "æ²»çĸĹ": 1650,
      "æĤ¨åı¯ä»¥": 1651,
      "åħ¸": 1652,
      "çĸ¾çĹħ": 1653,
      "é¢Ħæµĭ": 1654,
      "èīºæľ¯": 1655,
      "å±Ĥ": 1656,
      "æ²Ļ": 1657,
      "çļĦç¾": 1658,
      "å½Ĵ": 1659,
      "åİĭåĬĽ": 1660,
      "ç¨ĭåºı": 1661,
      "æ¯Ķè¾ĥ": 1662,
      "æķĪçİĩ": 1663,
      "æİ¢ç´¢": 1664,
      "åģĩ": 1665,
      "äºĳ": 1666,
      "è¯¦": 1667,
      "äººå·¥æĻºèĥ½æĬĢæľ¯": 1668,
      "äºĭä»¶": 1669,
      "èĮĥ": 1670,
      "èĶ": 1671,
      "ä¸ĬçļĦ": 1672,
      "æĤ£": 1673,
      "æĿ¯": 1674,
      "è´Ńä¹°": 1675,
      "ä¼łç»Ł": 1676,
      "æĿĤ": 1677,
      "çļĦæĦı": 1678,
      "çŁ³": 1679,
      "èĻ½çĦ¶": 1680,
      "éĻ¢": 1681,
      "æľĢç»Ī": 1682,
      "éĨ": 1683,
      "ä¸įä»ħ": 1684,
      "æĿ¥è¶Ĭ": 1685,
      "æ°ĶåĢĻåıĺåĮĸ": 1686,
      "çĶŁçī©": 1687,
      "çĶŁåĳ½": 1688,
      "é²ľ": 1689,
      "è¶ĬæĿ¥è¶Ĭ": 1690,
      "æĮī": 1691,
      "ç¦ı": 1692,
      "çĶµåŃĲ": 1693,
      "æīįèĥ½": 1694,
      "æµª": 1695,
      "æĪĳä»¬éľĢè¦ģ": 1696,
      "éļıçĿĢ": 1697,
      "é£İéĻ©": 1698,
      "æ¥": 1699,
      "å°±æĺ¯": 1700,
      "æĽ²": 1701,
      "ä¸Ģä»½": 1702,
      "æ´ĭ": 1703,
      "è¯Ħè®º": 1704,
      "çķ¥": 1705,
      "æ±½": 1706,
      "åªĴ": 1707,
      "çĥ¤": 1708,
      "ä¸´": 1709,
      "ç¼º": 1710,
      "åĽ°": 1711,
      "ä¸Ģä½į": 1712,
      "åį¡": 1713,
      "è·ĳ": 1714,
      "æĿ¥è¯´": 1715,
      "çĵ": 1716,
      "èĥĮ": 1717,
      "åı¶": 1718,
      "åĨ°": 1719,
      "æĢİä¹Ī": 1720,
      "å»ºç«ĭ": 1721,
      "ç¼ĸè¾ĳ": 1722,
      "ä¸°å¯Į": 1723,
      "åĪĽéĢł": 1724,
      "æĶ¿åºľ": 1725,
      "åİŁåĽł": 1726,
      "æĻ®": 1727,
      "å½©": 1728,
      "ä»·åĢ¼": 1729,
      "èĩªçĦ¶è¯Ńè¨Ģå¤ĦçĲĨ": 1730,
      "è¯¦ç»Ĩ": 1731,
      "æĿĥ": 1732,
      "åĿļ": 1733,
      "èĵĿ": 1734,
      "æł¡": 1735,
      "çļĦæī": 1736,
      "æ°´æŀľ": 1737,
      "æ¯ĶèµĽ": 1738,
      "åĳ¼": 1739,
      "æĽ´å¤ļçļĦ": 1740,
      "çļĦç¾İ": 1741,
      "åĽłç´ł": 1742,
      "çĶŁæĢģ": 1743,
      "è¡¨æĺİ": 1744,
      "å¤ļå°ĳ": 1745,
      "ä½ľèĢħ": 1746,
      "è¯Ńæ³ķ": 1747,
      "äº²": 1748,
      "èľ": 1749,
      "æĸĩæ¡Ī": 1750,
      "æĹ¶åĢĻ": 1751,
      "ä¹ĭéĹ´çļĦ": 1752,
      "è¯ĬæĸŃ": 1753,
      "ç¬Ķ": 1754,
      "æĶ¹åıĺ": 1755,
      "æĹı": 1756,
      "ç»Ħç»ĩ": 1757,
      "åħ¬åĽŃ": 1758,
      "åĩĨå¤ĩ": 1759,
      "ä»¥ä¸ĭæĸĩæľ¬": 1760,
      "è¿ĺåı¯ä»¥": 1761,
      "åĬŀ": 1762,
      "å³": 1763,
      "èĴ": 1764,
      "æľºä¼ļ": 1765,
      "é¢ĺçĽ®": 1766,
      "è¯·éĹ®": 1767,
      "ä½ı": 1768,
      "ä¿ĥ": 1769,
      "é¢Ĺ": 1770,
      "çļĦæĥħæĦŁ": 1771,
      "çªģ": 1772,
      "æĿĲæĸĻ": 1773,
      "çĶŁäº§": 1774,
      "çĽĳ": 1775,
      "ç¼ĵ": 1776,
      "éĴŁ": 1777,
      "åĲįç§°": 1778,
      "è¿İ": 1779,
      "é£İæł¼": 1780,
      "ç»ĵæŀĦ": 1781,
      "çķĻ": 1782,
      "å°¼": 1783,
      "çĻ¾": 1784,
      "çļĦæĸ¹æ³ķ": 1785,
      "å½ĵåľ°": 1786,
      "å¹´è½»": 1787,
      "ç»ıéªĮ": 1788,
      "å®ĥçļĦ": 1789,
      "çī¹å¾ģ": 1790,
      "åıĺå¾Ĺ": 1791,
      "çĸ«": 1792,
      "æ³¢": 1793,
      "äº®": 1794,
      "çłģ": 1795,
      "é£Łåĵģ": 1796,
      "çĤ¼": 1797,
      "è¡Įä¸ļ": 1798,
      "åľ¨è¿Ļä¸ª": 1799,
      "åķĨåĵģ": 1800,
      "äº«åıĹ": 1801,
      "å¤§éĩı": 1802,
      "é¢ľèī²": 1803,
      "å¯»æī¾": 1804,
      "åªĴä½ĵ": 1805,
      "å¦ĤæŀľæĤ¨": 1806,
      "è¡¡": 1807,
      "å¼Ĥ": 1808,
      "å¿ĥçĲĨ": 1809,
      "çļĦæµ": 1810,
      "ç½Ĺ": 1811,
      "çļĦæĸĩæľ¬": 1812,
      "éĿĴ": 1813,
      "æĭŁ": 1814,
      "æľ¨": 1815,
      "åĤ": 1816,
      "è®¨è®º": 1817,
      "è¡ĮåĬ¨": 1818,
      "è´£": 1819,
      "çļ®": 1820,
      "æ´²": 1821,
      "åĲ§": 1822,
      "é¡»": 1823,
      "è´ŁéĿ¢": 1824,
      "ä¸Ģå®ļ": 1825,
      "åħħæ»¡": 1826,
      "åıĤåĬł": 1827,
      "å¨ģ": 1828,
      "ä¸ºä»Ģä¹Ī": 1829,
      "ĥåľ": 1830,
      "âĢĿãĢĤ": 1831,
      "å¼Ģåıĳ": 1832,
      "è¯ĳ": 1833,
      "èĳĹåĲį": 1834,
      "ä»·æł¼": 1835,
      "æ¯ıä¸ªäºº": 1836,
      "åŀĥåľ": 1837,
      "åŀĥåľ¾": 1838,
      "ä¼¤": 1839,
      "éĥ¨çĶµå½±": 1840,
      "æ¯ıå¤©": 1841,
      "ä¸Ńå¿ĥ": 1842,
      "å·¥åħ·": 1843,
      "çŁ¥è¯Ĩ": 1844,
      "ĊĊ": 1845,
      "ãĢĤ\"": 1846,
      "æ±½è½¦": 1847,
      "ä¸ĢæŃ¥": 1848,
      "è®¾å¤ĩ": 1849,
      "æ¯į": 1850,
      "ç¾¤": 1851,
      "æ»©": 1852,
      "åħ´è¶£": 1853,
      "åĩºäºĨ": 1854,
      "èĶ¬": 1855,
      "ç´§": 1856,
      "åĮĹäº¬": 1857,
      "åľºæĻ¯": 1858,
      "ä½ľåĵģ": 1859,
      "åĵģçīĮ": 1860,
      "ä¸ĵä¸ļ": 1861,
      "ä»į": 1862,
      "æĶ¹åĸĦ": 1863,
      "åľŁ": 1864,
      "éĤ®": 1865,
      "è¿Ļä¸ªéĹ®é¢ĺ": 1866,
      "çļĦæ¸": 1867,
      "æł¹æį®ç»Ļå®ļçļĦ": 1868,
      "æĽ¿": 1869,
      "çļĦæķħäºĭ": 1870,
      "æĪĳä¼ļ": 1871,
      "è®²è¿°": 1872,
      "è¿Ļåı¥è¯Ŀ": 1873,
      "ç¾İä¸½": 1874,
      "çļĦæŃ": 1875,
      "çļĦæĶ": 1876,
      "å¸®æĪĳ": 1877,
      "éĩİ": 1878,
      "èĪĴéĢĤ": 1879,
      "åĪĽæĸ°": 1880,
      "éĺ¿": 1881,
      "çľł": 1882,
      "ä¸ĢçĽ´": 1883,
      "æīĭæľº": 1884,
      "ç§ĺ": 1885,
      "åº§": 1886,
      "æ¼«": 1887,
      "æ·±åº¦": 1888,
      "è¯¢": 1889,
      "åĩ»": 1890,
      "çļĦçĶµå½±": 1891,
      "æĶ¾æĿ¾": 1892,
      "é¡¹çĽ®": 1893,
      "åŃ©åŃĲ": 1894,
      "èĥľ": 1895,
      "çģµ": 1896,
      "çŃĳ": 1897,
      "éĢłæĪĲ": 1898,
      "æħ¢": 1899,
      "éĢĲ": 1900,
      "å·ŀ": 1901,
      "è¶ĭ": 1902,
      "éĩįæĸ°": 1903,
      "19": 1904,
      "éĩĳèŀį": 1905,
      "è§īå¾Ĺ": 1906,
      "å·¨": 1907,
      "ä¼ĳ": 1908,
      "çł´": 1909,
      "ä»¥ä¸ĭæĺ¯": 1910,
      "çĩ": 1911,
      "äºĭæĥħ": 1912,
      "åĲ¸å¼ķ": 1913,
      "åĪ¤æĸŃ": 1914,
      "åĨ³å®ļ": 1915,
      "èģĬ": 1916,
      "èĶ¬èıľ": 1917,
      "éĢģ": 1918,
      "å½ķ": 1919,
      "æ¤įçī©": 1920,
      "çļĦçŁ": 1921,
      "çĹĩ": 1922,
      "èĢĮä¸Ķ": 1923,
      "çĿ¡": 1924,
      "ä¸ŃæıĲåıĸåĩº": 1925,
      "èŃ¦": 1926,
      "æķ°åŃĹ": 1927,
      "åį°": 1928,
      "åĨĽ": 1929,
      "éĶ»": 1930,
      "åįı": 1931,
      "å·®": 1932,
      "åī©": 1933,
      "åı¦å¤ĸ": 1934,
      "éļĲ": 1935,
      "éĶ»çĤ¼": 1936,
      "ä½³": 1937,
      "æŃ¢": 1938,
      "æĪĳåı¯ä»¥": 1939,
      "é©¶": 1940,
      "ä¸Ģæ¬¡": 1941,
      "æ¸Ĳ": 1942,
      "æĢ§çļĦ": 1943,
      "çľĭåĪ°": 1944,
      "å»ºçŃĳ": 1945,
      "ç¿»è¯ĳ": 1946,
      "å°Ĭ": 1947,
      "éĩĩçĶ¨": 1948,
      "æľīä»Ģä¹Ī": 1949,
      "æ²³": 1950,
      "éĶĢåĶ®": 1951,
      "åı¯æĮģç»Ń": 1952,
      "çºª": 1953,
      "æĩ": 1954,
      "çľ¼": 1955,
      "è¶ĭåĬ¿": 1956,
      "å¿ħé¡»": 1957,
      "èª": 1958,
      "é¢ĳ": 1959,
      "æ°§": 1960,
      "ç®Ģæ´ģ": 1961,
      "æĸĩç«łä¸Ń": 1962,
      "å°Ĩåħ¶": 1963,
      "æ¢¦": 1964,
      "åĽ¢éĺŁ": 1965,
      "æĺ¨": 1966,
      "ä¸įä¼ļ": 1967,
      "éĴ±": 1968,
      "æĿ¿": 1969,
      "é©¾": 1970,
      "ç»ª": 1971,
      "ç§ģ": 1972,
      "åĪ¶å®ļ": 1973,
      "ä»¥ä¸Ĭ": 1974,
      "åĬ©äºİ": 1975,
      "åį«": 1976,
      "åĵĪ": 1977,
      "å¤įæĿĤ": 1978,
      "åĪĿ": 1979,
      "çļĦçł": 1980,
      "å¿«éĢŁ": 1981,
      "åĬ±": 1982,
      "åľ°åĮº": 1983,
      "çī¹çĤ¹": 1984,
      "èĩªçĶ±": 1985,
      "Ġ\"": 1986,
      "æķ°åŃ¦": 1987,
      "è¿Ļæ®µæĸĩæľ¬": 1988,
      "çī¹åĪ«": 1989,
      "æ¶ī": 1990,
      "ä¸Ģåıª": 1991,
      "éĥ½æľī": 1992,
      "ä»£è¡¨": 1993,
      "å±ŀäºİ": 1994,
      "çĦ¶èĢĮ": 1995,
      "æĥ³è¦ģ": 1996,
      "åĨľ": 1997,
      "çļĦæĳ": 1998,
      "æĺ¯åľ¨": 1999,
      "æĸĩåŃĹ": 2000,
      "æĳĦ": 2001,
      "èģĮä¸ļ": 2002,
      "æĥ¯": 2003,
      "çļĦæ²": 2004,
      "è´¢": 2005,
      "å¿Ĺ": 2006,
      "è¡Ģ": 2007,
      "çĽ®åīį": 2008,
      "èĹ": 2009,
      "ä¸ºæĤ¨": 2010,
      "è¯Ħä»·": 2011,
      "çĸĳ": 2012,
      "å®ŀä½ĵ": 2013,
      "æĲŃ": 2014,
      "ä¼¦": 2015,
      "ä¾Ŀ": 2016,
      "éĻįä½İ": 2017,
      "åĨ·": 2018,
      "éĴĪ": 2019,
      "å°ļ": 2020,
      "éĺ³åħī": 2021,
      "ç»ıåİĨ": 2022,
      "å²ģ": 2023,
      "å°½ç®¡": 2024,
      "åºķ": 2025,
      "åĲĪä½ľ": 2026,
      "å©": 2027,
      "æĬ¥éģĵ": 2028,
      "åħ¬åı¸çļĦ": 2029,
      "å¾Īå¥½": 2030,
      "åı¯ä»¥éĢļè¿ĩ": 2031,
      "çļĦçĶŁæ´»": 2032,
      "æ·»": 2033,
      "ä¸įè¦ģ": 2034,
      "éĤ®ä»¶": 2035,
      "æĺ¯æĮĩ": 2036,
      "ç²ī": 2037,
      "çļĦæĮ": 2038,
      "äººå·¥æĻºèĥ½åľ¨": 2039,
      "åĬłå¼º": 2040,
      "çĽĸ": 2041,
      "ç»§": 2042,
      "åįļ": 2043,
      "ç®ĢçŁŃ": 2044,
      "æķ°éĩı": 2045,
      "çī©è´¨": 2046,
      "ç¼ĸåĨĻ": 2047,
      "ä¿ĥè¿Ľ": 2048,
      "ä½łèĥ½": 2049,
      "æĥĬ": 2050,
      "çīĪ": 2051,
      "åħ±åĲĮ": 2052,
      "çļĦæĦŁ": 2053,
      "ç¾İé£Ł": 2054,
      "è®©æĪĳ": 2055,
      "å¼ºè°ĥ": 2056,
      "è¿ĻéĩĮ": 2057,
      "çļĦå»ºè®®": 2058,
      "æ±ĩ": 2059,
      "æľīåĬ©äºİ": 2060,
      "ä¸ĬæľĢ": 2061,
      "è¿Ļéĥ¨çĶµå½±": 2062,
      "å¹¸": 2063,
      "åĪļ": 2064,
      "å°Ħ": 2065,
      "çļĦæ¯": 2066,
      "æĹ¨": 2067,
      "ä¹łæĥ¯": 2068,
      "åŁºç¡": 2069,
      "è°¢è°¢": 2070,
      "åŁºç¡Ģ": 2071,
      "éĩįåĨĻ": 2072,
      "åıĮ": 2073,
      "æľīå¾Īå¤ļ": 2074,
      "ç¤¼": 2075,
      "èģĶç½ĳ": 2076,
      "æľīäºĽ": 2077,
      "èĻļ": 2078,
      "æķ´ä¸ª": 2079,
      "ä¸ĢåĲį": 2080,
      "ç§»": 2081,
      "ä½¿å¾Ĺ": 2082,
      "èĪŀ": 2083,
      "åĨ³çŃĸ": 2084,
      "éĵģ": 2085,
      "åĬĽåĴĮ": 2086,
      "åį´": 2087,
      "åĮ»åŃ¦": 2088,
      "äº¤æµģ": 2089,
      "å½¢å¼ı": 2090,
      "åį±": 2091,
      "ä¸įéĶĻ": 2092,
      "å±Ģ": 2093,
      "çļĦæķ°æį®": 2094,
      "æĬĢèĥ½": 2095,
      "å¡ĳ": 2096,
      "âĢĶ": 2097,
      "åįĪ": 2098,
      "èĮ¶": 2099,
      "è¿Ļæĺ¯ä¸Ģ": 2100,
      "æĤ£èĢħ": 2101,
      "ç¥¨": 2102,
      "å®ĩ": 2103,
      "åŁºæľ¬": 2104,
      "æľ¬æĸĩ": 2105,
      "æĬĢå·§": 2106,
      "æľºåĻ¨äºº": 2107,
      "å¯Ł": 2108,
      "å¹»": 2109,
      "çļĦæı": 2110,
      "æ¯Ĵ": 2111,
      "èģĶç³»": 2112,
      "çļĦç¤": 2113,
      "è¯´æĺİ": 2114,
      "çī¹å®ļ": 2115,
      "åı«": 2116,
      "Ġ-": 2117,
      "çŃīæĸ¹éĿ¢": 2118,
      "èķ": 2119,
      "ä»¤äºº": 2120,
      "æĭħ": 2121,
      "æİ¢è®¨": 2122,
      "åķĬ": 2123,
      "å¢ŀå¼º": 2124,
      "é¥Ń": 2125,
      "åĪĨéĴŁ": 2126,
      "æĢĿèĢĥ": 2127,
      "è¿ĩç¨ĭä¸Ń": 2128,
      "ç¹": 2129,
      "åįĥ": 2130,
      "æ¯Ľ": 2131,
      "åĸĿ": 2132,
      "çĭ¬çī¹": 2133,
      "è®©äºº": 2134,
      "æıĲåĪ°": 2135,
      "ä¸ªèĭ¹æŀľ": 2136,
      "å®£": 2137,
      "ä½įç½®": 2138,
      "èĢģå¸Ī": 2139,
      "å³°": 2140,
      "ç«ŀ": 2141,
      "è±Ĩ": 2142,
      "çº³": 2143,
      "æ¬¢è¿İ": 2144,
      "è¯ŃéŁ³": 2145,
      "æĸĩæľ¬ä¸Ń": 2146,
      "èĸ": 2147,
      "ç¬¬äºĮ": 2148,
      "éŀ": 2149,
      "æĬ½": 2150,
      "ä»ĺ": 2151,
      "å¥¥": 2152,
      "æ©Ļ": 2153,
      "åıªæľī": 2154,
      "åĿĲ": 2155,
      "éĢŁåº¦": 2156,
      "ä»¥ä¾¿": 2157,
      "è¡ĮæĺŁ": 2158,
      "ç«¯": 2159,
      "ç»Ŀ": 2160,
      "æĸĩåŃ¦": 2161,
      "éĢı": 2162,
      "è¿Ľä¸ĢæŃ¥": 2163,
      "èģļ": 2164,
      "æĦŁè§ī": 2165,
      "è·Ł": 2166,
      "è¯¾": 2167,
      "è¾ĵåĩº": 2168,
      "å®¹æĺĵ": 2169,
      "æĦŁè°¢": 2170,
      "ç¤¾äº¤åªĴä½ĵ": 2171,
      "å½¢æĪĲ": 2172,
      "æī§": 2173,
      "çģ¾": 2174,
      "æŃ£éĿ¢": 2175,
      "ä¹ħ": 2176,
      "çļĦæ°´": 2177,
      "ä½Ļ": 2178,
      "é¡º": 2179,
      "çļĦçľ": 2180,
      "æĦ¿": 2181,
      "çĦ¦": 2182,
      "é¹": 2183,
      "é©¾é©¶": 2184,
      "çĮ®": 2185,
      "ç»ĦæĪĲ": 2186,
      "ç¬ĳ": 2187,
      "è¿Ļæĺ¯ä¸Ģä¸ª": 2188,
      "å®ŀéĻħ": 2189,
      "æ¶īåıĬ": 2190,
      "çıŃ": 2191,
      "å¤§åĪ©": 2192,
      "æ·±åº¦åŃ¦ä¹ł": 2193,
      "çĥĪ": 2194,
      "åĪĽæĦı": 2195,
      "çļĦæĬĢæľ¯": 2196,
      "è¿Ļä¸Ģ": 2197,
      "åģ¥èº«": 2198,
      "èĪ¬": 2199,
      "èĪª": 2200,
      "æ¦Ĥæĭ¬": 2201,
      "åįĬ": 2202,
      "ç»ĥä¹ł": 2203,
      "åģļåĩº": 2204,
      "åŃ¦æł¡": 2205,
      "é¾Ļ": 2206,
      "çļĦä¸»é¢ĺ": 2207,
      "ä¸įåı¯": 2208,
      "æĿ¡ä»¶": 2209,
      "åıĺæļĸ": 2210,
      "äººåĳĺ": 2211,
      "åĲįåŃĹ": 2212,
      "é¼ĵ": 2213,
      "æıĲä¾ĽäºĨ": 2214,
      "èĲ¥åħ»": 2215,
      "ç»§ç»Ń": 2216,
      "çļĦæĹ¶éĹ´": 2217,
      "ç¼ĸç¨ĭ": 2218,
      "åĳĺå·¥": 2219,
      "åĲįè¯į": 2220,
      "çİĽ": 2221,
      "æĦıè¯Ĩ": 2222,
      "éĵ¾": 2223,
      "æķħ": 2224,
      "åı¯ä»¥åľ¨": 2225,
      "ç»ıå¸¸": 2226,
      "é«ĺçļĦ": 2227,
      "æĸ¹åĲĳ": 2228,
      "è´Ńçī©": 2229,
      "èĥĮæĻ¯": 2230,
      "èĩªæĪĳ": 2231,
      "åĨ¬": 2232,
      "éĢĤå½ĵ": 2233,
      "æĦıä¹ī": 2234,
      "éĵ¶": 2235,
      "æ°´å¹³": 2236,
      "å¤ļä¸ª": 2237,
      "èĮĥåĽ´": 2238,
      "ä»İæĸĩç«ł": 2239,
      "é¢Ŀ": 2240,
      "çļĦå¤©æ°Ķ": 2241,
      "æĭ¿": 2242,
      "å¤ļç§į": 2243,
      "è¯ĹæŃĮ": 2244,
      "åĽ¾åĥı": 2245,
      "åħ°": 2246,
      "ä¸¥éĩį": 2247,
      "å®ĺ": 2248,
      "åĳ¼åĲ¸": 2249,
      "çī©åĵģ": 2250,
      "ä¼´": 2251,
      "æĮīçħ§": 2252,
      "éŀĭ": 2253,
      "å¦Ĥä¸ĭ": 2254,
      "åºĶå¯¹": 2255,
      "è¿·": 2256,
      "çļĦå°ı": 2257,
      "å®ł": 2258,
      "èĲ¨": 2259,
      "å¸¸è§ģ": 2260,
      "å¤ıå¤©": 2261,
      "æ¸ħæĻ": 2262,
      "æ»¡è¶³": 2263,
      "ç¢³": 2264,
      "åĲĮæĹ¶ä¹Ł": 2265,
      "è½¯ä»¶": 2266,
      "å¹³è¡¡": 2267,
      "æ´ŀ": 2268,
      "å¯¹è¯ĿåĨħå®¹": 2269,
      "æľ«": 2270,
      "é¡¾": 2271,
      "çŁŃè¯Ń": 2272,
      "æĬ±": 2273,
      "åİ»äºĨ": 2274,
      "ä¼ļè®®": 2275,
      "ä¼°": 2276,
      "éª¤": 2277,
      "ç±»åĪ«": 2278,
      "æ£ĢæŁ¥": 2279,
      "çļĦçĪ": 2280,
      "åĢĭ": 2281,
      "åĭĩ": 2282,
      "ä¸ĭæĿ¥": 2283,
      "è¯·ä½ł": 2284,
      "15": 2285,
      "æĽ¾": 2286,
      "çĨŁ": 2287,
      "ç»ıåħ¸": 2288,
      "éĽª": 2289,
      "çºł": 2290,
      "æľ¬ä¹¦": 2291,
      "ç¹ģ": 2292,
      "èµı": 2293,
      "æĲľ": 2294,
      "å¼ķèµ·": 2295,
      "æıĲåĪ°äºĨ": 2296,
      "äºĭå®ŀ": 2297,
      "ç©ºæ°Ķ": 2298,
      "æľĹ": 2299,
      "çļĦæłĩ": 2300,
      "ä½įäºİ": 2301,
      "åŃ¤": 2302,
      "åģı": 2303,
      "åıĤä¸İ": 2304,
      "åĿı": 2305,
      "è¸": 2306,
      "æ´Ĺ": 2307,
      "è¯»èĢħ": 2308,
      "Ġåľ¨": 2309,
      "åħĥç´ł": 2310,
      "éŃĶ": 2311,
      "çļĦåħ³éĶ®": 2312,
      "æĬķèµĦ": 2313,
      "çĶµè§Ĩ": 2314,
      "æĦī": 2315,
      "å½ĵçĦ¶åı¯ä»¥": 2316,
      "ä»Ģä¹Īæĺ¯": 2317,
      "æ³³": 2318,
      "åķĨä¸ļ": 2319,
      "æĹ¥å¸¸": 2320,
      "ç¨³": 2321,
      "æĽ´å¥½çļĦ": 2322,
      "æĺ¨å¤©": 2323,
      "è°Ī": 2324,
      "åĪĨäº«": 2325,
      "ç§ĳåŃ¦å®¶": 2326,
      "éĿ¢ä¸´": 2327,
      "çľģ": 2328,
      "åĩºæĿ¥": 2329,
      "çļĦçłĶç©¶": 2330,
      "æŁĶ": 2331,
      "çķħ": 2332,
      "å§Ĩ": 2333,
      "åĢ¼å¾Ĺ": 2334,
      "çļĦæĸ¹å¼ı": 2335,
      "æ¸©åº¦": 2336,
      "çĶľ": 2337,
      "æ²ī": 2338,
      "è·Ŀ": 2339,
      "åģľ": 2340,
      "æİĴæĶ¾": 2341,
      "è´µ": 2342,
      "éĢĶ": 2343,
      "æ·»åĬł": 2344,
      "è¿ĩåİ»": 2345,
      "å®łçī©": 2346,
      "åĬĽéĩı": 2347,
      "éĢīé¡¹": 2348,
      "é¥°": 2349,
      "æľīçĿĢ": 2350,
      "æĪĳåĸľæ¬¢": 2351,
      "çĨĬ": 2352,
      "éħ±": 2353,
      "è¶ħè¿ĩ": 2354,
      "æķĪæŀľ": 2355,
      "èĤ¡": 2356,
      "è°ģ": 2357,
      "çİ°å®ŀ": 2358,
      "å²Ľ": 2359,
      "åı£æĦŁ": 2360,
      "å°Ĩä¼ļ": 2361,
      "éħ¸": 2362,
      "éĻĪ": 2363,
      "ç³»åĪĹ": 2364,
      "ï¼ģ</": 2365,
      "åĽ½å®¶": 2366,
      "çļĦå·¥ä½ľ": 2367,
      "çļĦç¬": 2368,
      "ç¾İåĳ³": 2369,
      "ä¼½": 2370,
      "ï¼ĮâĢľ": 2371,
      "æŃ»": 2372,
      "å¹³åĿĩ": 2373,
      "å¥ĸ": 2374,
      "æĴŃ": 2375,
      "è¿ĽæŃ¥": 2376,
      "éľ²": 2377,
      "å¤«": 2378,
      "éĿł": 2379,
      "æ¬§": 2380,
      "ç³ķ": 2381,
      "æ£®": 2382,
      "å¿ĺ": 2383,
      "å¤§åŃ¦": 2384,
      "äººçī©": 2385,
      "æİĮ": 2386,
      "å®Ļ": 2387,
      "ç¥ŀç»ı": 2388,
      "çļĦæ®": 2389,
      "æľĢåĸľæ¬¢": 2390,
      "åĪĽå»º": 2391,
      "åħ¨çĲĥåıĺæļĸ": 2392,
      "éĢĤåºĶ": 2393,
      "èĨ": 2394,
      "çŃīé¢ĨåŁŁ": 2395,
      "éĴĪå¯¹": 2396,
      "æĺİå¤©": 2397,
      "ä»İè¿Ļç¯ĩæĸĩç«ł": 2398,
      "åŁ¹": 2399,
      "å¿Ĩ": 2400,
      "è´§": 2401,
      "12": 2402,
      "çļĦæĥħåĨµ": 2403,
      "äºĴèģĶç½ĳ": 2404,
      "æľīä¸Ģä¸ª": 2405,
      "ä¹īè¯į": 2406,
      "è°ĥæķ´": 2407,
      "å¥Ĺ": 2408,
      "å®ĩå®Ļ": 2409,
      "çļĦæľĢ": 2410,
      "åĨĻä½ľ": 2411,
      "ä¹³": 2412,
      "éĿ©": 2413,
      "çĽ¸åĲĮ": 2414,
      "åıĸå¾Ĺ": 2415,
      "çļĦåľ°æĸ¹": 2416,
      "åĲĪéĢĤ": 2417,
      "ľä¼½": 2418,
      "ä¿®æĶ¹": 2419,
      "è¿Ļä¸ªåı¥åŃĲ": 2420,
      "30": 2421,
      "çļĦæ´": 2422,
      "è§Ĩè§ī": 2423,
      "è®©æĪĳä»¬": 2424,
      "æ¸ħæĻ°": 2425,
      "æĪĳä»¬åºĶè¯¥": 2426,
      "çĪ±æĥħ": 2427,
      "åī©ä¸ĭ": 2428,
      "æ¥¼": 2429,
      "çº½": 2430,
      "å°ıæĹ¶": 2431,
      "æ³ķå¾ĭ": 2432,
      "éģĹ": 2433,
      "æĥħèĬĤ": 2434,
      "ä¸Ģé¦ĸ": 2435,
      "é«ĺæķĪ": 2436,
      "æ·±åħ¥": 2437,
      "æļĹ": 2438,
      "å½¢å®¹": 2439,
      "æı¡": 2440,
      "æī¿": 2441,
      "èĲ¥éĶĢ": 2442,
      "æ··": 2443,
      "åĽłä¸ºå®ĥ": 2444,
      "åĨĴ": 2445,
      "åĪĽä½ľ": 2446,
      "è·³": 2447,
      "åĽ°éļ¾": 2448,
      "æĹ¥æľ¬": 2449,
      "åĢĴ": 2450,
      "ä¸ªç³ĸæŀľ": 2451,
      "åľ°çĤ¹": 2452,
      "ç§Ģ": 2453,
      "èĹı": 2454,
      "æµ·æ´ĭ": 2455,
      "ä»ĭç»įäºĨ": 2456,
      "åºĬ": 2457,
      "æ±Ł": 2458,
      "çŃĸçķ¥": 2459,
      "çļĦæ®µ": 2460,
      "æ½ľ": 2461,
      "éļĲç§ģ": 2462,
      "è¶³å¤Ł": 2463,
      "è¯įæ±ĩ": 2464,
      "çĽ¸ä¼¼": 2465,
      "æĹ¶å°ļ": 2466,
      "æ±ī": 2467,
      "æĹ¥æľŁ": 2468,
      "ç£": 2469,
      "å·§åħĭ": 2470,
      "éģĵå¾·": 2471,
      "å¡ĳæĸĻ": 2472,
      "èĭ±è¯Ń": 2473,
      "çļĦå¤§": 2474,
      "çļĦè¯Ŀ": 2475,
      "çļĦçĥ": 2476,
      "ç½ĳç«Ļ": 2477,
      "æ±¤": 2478,
      "æ£Ĵ": 2479,
      "å·¦": 2480,
      "ä¼ĺåĮĸ": 2481,
      "100": 2482,
      "çļĦæ°Ķ": 2483,
      "çļĦæ®µèĲ½": 2484,
      "å¿«ä¹Ĳ": 2485,
      "çļĦç¤¾": 2486,
      "ç»ĨèĬĤ": 2487,
      "æĵį": 2488,
      "ä¾ĭåŃĲ": 2489,
      "å¹¶åľ¨": 2490,
      "éĨĴ": 2491,
      "æ¸¸æ³³": 2492,
      "å®Ī": 2493,
      "ç»¿èī²": 2494,
      "çĦ¦èĻĳ": 2495,
      "æļ´": 2496,
      "èį¯çī©": 2497,
      "å®ĥä»¬çļĦ": 2498,
      "åĪĨç±»ä¸º": 2499,
      "éļľ": 2500,
      "çĻ»": 2501,
      "è´£ä»»": 2502,
      "è¢ĭ": 2503,
      "æľĿ": 2504,
      "æĺ¯çļĦ": 2505,
      "æıĲåĩº": 2506,
      "åŃ£èĬĤ": 2507,
      "æł¹æį®ä»¥ä¸ĭ": 2508,
      "ä¿Ŀåģ¥": 2509,
      "æĹłè®º": 2510,
      "æ¶Īè´¹": 2511,
      "é¡¿": 2512,
      "ä»įçĦ¶": 2513,
      "çļĦæĹ¶åĢĻ": 2514,
      "ä¸Ģç¯ĩæĸĩç«ł": 2515,
      "æĬ¥åĳĬ": 2516,
      "æĶ¿çŃĸ": 2517,
      "å¹¿åĳĬ": 2518,
      "çļĦå¥½": 2519,
      "çģ¯": 2520,
      "ä»¥ä¸ĭæĺ¯ä¸Ģ": 2521,
      "å¹³åı°": 2522,
      "åĲĪçĲĨ": 2523,
      "åı³": 2524,
      "çļĦéĩįè¦ģæĢ§": 2525,
      "ç»ŃåĨĻ": 2526,
      "çļĦé£Łçī©": 2527,
      "å¤ļæł·": 2528,
      "æ¨¡å¼ı": 2529,
      "å°ģ": 2530,
      "äººå·¥æĻºèĥ½çļĦ": 2531,
      "å·§åħĭåĬĽ": 2532,
      "ç¥ŀç§ĺ": 2533,
      "åĹ": 2534,
      "ŁéĢļ": 2535,
      "è¡Ĺ": 2536,
      "å¢ŀéķ¿": 2537,
      "åľ¨å®¶": 2538,
      "..": 2539,
      "çĬ¯": 2540,
      "ç®±": 2541,
      "æµĵ": 2542,
      "åıįåºĶ": 2543,
      "ä¸įè¿ĩ": 2544,
      "çĹĽ": 2545,
      "ä¸Ģæł·": 2546,
      "åľĨ": 2547,
      "å°ıæĺİæľī": 2548,
      "èĢĲ": 2549,
      "å¹¸ç¦ı": 2550,
      "æĮ¥": 2551,
      "æĬĺ": 2552,
      "å¸¦æĿ¥äºĨ": 2553,
      "æĭ¼": 2554,
      "åĺ": 2555,
      "åĮĸçļĦ": 2556,
      "ç¬¦åĲĪ": 2557,
      "èĦĤ": 2558,
      "æĶ¹è¿Ľ": 2559,
      "çĳľä¼½": 2560,
      "å¡Ķ": 2561,
      "æĲľç´¢": 2562,
      "çĬ¶æĢģ": 2563,
      "åĨ²": 2564,
      "åı£åĳ³": 2565,
      "åĪ¶éĢł": 2566,
      "çļĦæµ·": 2567,
      "çĶµèĦĳ": 2568,
      "å¿ħè¦ģ": 2569,
      "ç¼ĵè§£": 2570,
      "50": 2571,
      "ä¹İ": 2572,
      "æķĳ": 2573,
      "æĦŁåıĹ": 2574,
      "æĬĹ": 2575,
      "çº½çº¦": 2576,
      "çī©çĲĨ": 2577,
      "Ġ=": 2578,
      "è£¤": 2579,
      "çº¸": 2580,
      "æĺİç¡®": 2581,
      "äººåĲį": 2582,
      "è¯įè¯Ń": 2583,
      "çļĦæĳĺè¦ģ": 2584,
      "åħ¶æ¬¡": 2585,
      "ä¸Ĭåįĩ": 2586,
      "èĦļ": 2587,
      "é¼ĵåĬ±": 2588,
      "æŃ£ç¡®çļĦ": 2589,
      "ç«ŀäºī": 2590,
      "ç«¥": 2591,
      "åį³åı¯": 2592,
      "æĢ»æĺ¯": 2593,
      "éĹ²": 2594,
      "çļĦä¸»": 2595,
      "åľ°æĸ¹": 2596,
      "åĬ¨ä½ľ": 2597,
      "æĥħç»ª": 2598,
      "æł¸": 2599,
      "å·¥ç¨ĭ": 2600,
      "åĪĨç»Ļ": 2601,
      "ç±į": 2602,
      "æıĲä¾Ľä¸Ģä¸ª": 2603,
      "æ½®": 2604,
      "éĢĲæ¸Ĳ": 2605,
      "çİ°è±¡": 2606,
      "åıĹæ¬¢è¿İ": 2607,
      "åĽ½éĻħ": 2608,
      "è¿½æ±Ĥ": 2609,
      "éĻĲåĪ¶": 2610,
      "é»İ": 2611,
      "å®¶å±ħ": 2612,
      "æŁĲäºĽ": 2613,
      "ä¹ĭåīį": 2614,
      "åĩıè½»": 2615,
      "è¾Ĩ": 2616,
      "æ¬£": 2617,
      "è´¡": 2618,
      "æ°¸": 2619,
      "ä¸ĸçºª": 2620,
      "çħ®": 2621,
      "æµĭè¯ķ": 2622,
      "çĽĲ": 2623,
      "åĳ³éģĵ": 2624,
      "è·Ŀç¦»": 2625,
      "æĻ¯çĤ¹": 2626,
      "æıĲåįĩ": 2627,
      "ä¸Ģåı¥è¯Ŀ": 2628,
      "èĿ": 2629,
      "18": 2630,
      "å¤ªç©º": 2631,
      "èĤ¤": 2632,
      "åºĶçĶ¨äºİ": 2633,
      "ä¸Ŀ": 2634,
      "çĶŁæĢģç³»ç»Ł": 2635,
      "æĲŃéħį": 2636,
      "è°·": 2637,
      "ä¸ĸçķĮä¸ĬæľĢ": 2638,
      "±ä¹Ĳ": 2639,
      "çĤº": 2640,
      "åħ¬åħ±": 2641,
      "æİ¨åĬ¨": 2642,
      "ä¸ĭæĸĩ": 2643,
      "è®©ä½ł": 2644,
      "ä»¿": 2645,
      "éĶħ": 2646,
      "å®ŀéªĮ": 2647,
      "åº¦åĴĮ": 2648,
      "éĸ": 2649,
      "åĵªä¸ª": 2650,
      "ç»¼": 2651,
      "ç¥Ŀ": 2652,
      "æĻļä¸Ĭ": 2653,
      "ä¸Ģå®¶": 2654,
      "ä¸ªæĢ§": 2655,
      "ä½¿åħ¶æĽ´åĬł": 2656,
      "çº¢èī²": 2657,
      "ç©ºéĹ´": 2658,
      "å¼łä¸ī": 2659,
      "çĶ¨æĿ¥": 2660,
      "è§£åĨ³æĸ¹æ¡Ī": 2661,
      "åĢĳ": 2662,
      "æ±ł": 2663,
      "æ©ĻåŃĲ": 2664,
      "å¤ıåŃ£": 2665,
      "æĪĲéķ¿": 2666,
      "çļĦåĨħå®¹": 2667,
      "å¸ģ": 2668,
      "æĦıæĢĿ": 2669,
      "æĿĳ": 2670,
      "è´¡çĮ®": 2671,
      "æĺ¯çĶ±": 2672,
      "éĵħ": 2673,
      "æ¹ĸ": 2674,
      "çļĦæ³": 2675,
      "çĽĺ": 2676,
      "å±ķç¤º": 2677,
      "çīĽå¥¶": 2678,
      "ä¹ĺ": 2679,
      "è¯Ħä¼°": 2680,
      "èµŀ": 2681,
      "åĲ«ä¹ī": 2682,
      "ä¸¤ä¸ªåı¥åŃĲ": 2683,
      "æ°Ķä½ĵ": 2684,
      "å¿Ļ": 2685,
      "è²": 2686,
      "æľºæŀĦ": 2687,
      "æŃ§": 2688,
      "æĹ©ä¸Ĭ": 2689,
      "__": 2690,
      "æľªæĿ¥çļĦ": 2691,
      "åİŁå§ĭ": 2692,
      "åĬ³": 2693,
      "å¥³æĢ§": 2694,
      "çĬ¶åĨµ": 2695,
      "å®«": 2696,
      "å®Įåħ¨": 2697,
      "æ±ģ": 2698,
      "åĴĮåħ¶ä»ĸ": 2699,
      "çļĦåİĨåı²": 2700,
      "æī©": 2701,
      "ãĢĤâĢĿ</": 2702,
      "ä¸ĢèĪ¬": 2703,
      "åİļ": 2704,
      "ç»Ļåĩºä¸Ģä¸ª": 2705,
      "è°ĥæŁ¥": 2706,
      "åľ¨çº¿": 2707,
      "èİ·åıĸ": 2708,
      "æķ£æŃ¥": 2709,
      "å¥ĭ": 2710,
      "å°Ĭéĩį": 2711,
      "æĿ¥èĩª": 2712,
      "çĶŁæ´»ä¸Ń": 2713,
      "æĪ·å¤ĸ": 2714,
      "åĤ¨": 2715,
      "è®°å½ķ": 2716,
      "è¿Ļå®¶": 2717,
      "ç¯®": 2718,
      "çĽ¸ä¿¡": 2719,
      "åĮ»çĸĹä¿Ŀåģ¥": 2720,
      "åĲ¯": 2721,
      "ä¸ľè¥¿": 2722,
      "æ»ĳ": 2723,
      "çĽ´æİ¥": 2724,
      "æĪĲæľ¬": 2725,
      "ä¹Łä¼ļ": 2726,
      "åĪĹè¡¨": 2727,
      "åı¯èĥ½æĺ¯": 2728,
      "æĬĢæľ¯çļĦ": 2729,
      "æĦıåĳ³": 2730,
      "æĺł": 2731,
      "å°į": 2732,
      "åħŃ": 2733,
      "è¾¾åĪ°": 2734,
      "çļĦæĢĿ": 2735,
      "åĽŀçŃĶéĹ®é¢ĺ": 2736,
      "ç½ª": 2737,
      "å¥¹çļĦ": 2738,
      "ä¸įçŁ¥éģĵ": 2739,
      "çłĶ": 2740,
      "è®ºæĸĩ": 2741,
      "å¾Ħ": 2742,
      "åºĶçĶ¨ç¨ĭåºı": 2743,
      "æĦıå¤§åĪ©": 2744,
      "ä¸Ĭæµ·": 2745,
      "æĪĳè®¤ä¸º": 2746,
      "å¦Ī": 2747,
      "éĵħç¬Ķ": 2748,
      "åĨł": 2749,
      "éĤ£éĩĮ": 2750,
      "æĸ¹ä¾¿": 2751,
      "çİī": 2752,
      "åĪĨåĪ«": 2753,
      "æĪĳå¾Ī": 2754,
      "è¡¨è¾¾äºĨ": 2755,
      "ç¼©": 2756,
      "éĢĻ": 2757,
      "çĥ§": 2758,
      "åŃ¦ä¹łåĴĮ": 2759,
      "ç»Ļä½ł": 2760,
      "æĿ°": 2761,
      "æŃ¥éª¤": 2762,
      "æįŁ": 2763,
      "èĳĹåĲįçļĦ": 2764,
      "å·´é»İ": 2765,
      "æ·±åĪ»": 2766,
      "æĢ¥": 2767,
      "éģį": 2768,
      "ç¨³å®ļ": 2769,
      "æ´¾": 2770,
      "éº¦": 2771,
      "èĽĭçĻ½": 2772,
      "è¶³çĲĥ": 2773,
      "åĽº": 2774,
      "èĩ³å°ĳ": 2775,
      "éĩıåŃĲ": 2776,
      "ä¸Ģå¤©": 2777,
      "åĩī": 2778,
      "æĶ¹åĨĻ": 2779,
      "æŀ¶": 2780,
      "åı¯ä»¥ä½¿çĶ¨": 2781,
      "è¿Ļç¯ĩ": 2782,
      "æĸĹ": 2783,
      "çĩĥ": 2784,
      "æĸ°éĹ»æĬ¥éģĵ": 2785,
      "æĦıåĳ³çĿĢ": 2786,
      "æĽ¿æį¢": 2787,
      "åĳĪ": 2788,
      "çİ¯å¢ĥä¿ĿæĬ¤": 2789,
      "é¥¼": 2790,
      "åĪº": 2791,
      "å®½": 2792,
      "çĤĴ": 2793,
      "åıĳå¸ĥ": 2794,
      "åĮĸåŃ¦": 2795,
      "éĻĦ": 2796,
      "æŃī": 2797,
      "è¡¨éĿ¢": 2798,
      "ä½Ľ": 2799,
      "åĿļæĮģ": 2800,
      "å½ĵåīį": 2801,
      "åı¥åŃĲä¸Ń": 2802,
      "å¤©ç©º": 2803,
      "ç±»ä¼¼": 2804,
      "äººçĶŁ": 2805,
      "çļĦäºĭæĥħ": 2806,
      "éľĩ": 2807,
      "åģ¥åº·çļĦ": 2808,
      "æ°Ķæ¸©": 2809,
      "ä¸Ģç»Ħ": 2810,
      "çļĦä¸Ģä¸ª": 2811,
      "æģ¶": 2812,
      "æĿŁ": 2813,
      "å¹¶ä¸į": 2814,
      "èĩªè¡Į": 2815,
      "æĶ»": 2816,
      "ä»¥ç¡®ä¿Ŀ": 2817,
      "åºŁ": 2818,
      "åĶ±": 2819,
      "éĽħ": 2820,
      "ç»©": 2821,
      "on": 2822,
      "å¯Ĵ": 2823,
      "æĤ¦": 2824,
      "ä¿Ŀè¯ģ": 2825,
      "çŃ¾": 2826,
      "çļĦæ´»": 2827,
      "è®¢": 2828,
      "æ¯ıä¸ªæľĭåıĭ": 2829,
      "åĪĨåĪ°": 2830,
      "å°¤": 2831,
      "çĽ¸åħ³çļĦ": 2832,
      "å¹ħ": 2833,
      "æİ¨å¹¿": 2834,
      "çļĦç³": 2835,
      "æ¶¦": 2836,
      "è¡£æľį": 2837,
      "åºĵ": 2838,
      "çīĻ": 2839,
      "ç»ĺ": 2840,
      "éľĢè¦ģæ³¨æĦı": 2841,
      "¡èĲ": 2842,
      "çľŁæŃ£": 2843,
      "åĬ¨è¯į": 2844,
      "æī§è¡Į": 2845,
      "ä¼ĺåĬ¿": 2846,
      "æİī": 2847,
      "æģĲ": 2848,
      "æĢĿæĥ³": 2849,
      "åı¯ä»¥è¢«": 2850,
      "èĥ½éĩı": 2851,
      "èĤĮ": 2852,
      "èĭ¦": 2853,
      "çĽĽ": 2854,
      "æİ¥åıĹ": 2855,
      "ç§ĳå¹»": 2856,
      "å®ļä¹ī": 2857,
      "æ¤Ĵ": 2858,
      "çļĦæĸ°": 2859,
      "æ¨¡æĭŁ": 2860,
      "çıį": 2861,
      "ä¸Ģä¸ªäºº": 2862,
      "åı¯æĮģç»Ńåıĳå±ķ": 2863,
      "å¾ª": 2864,
      "éªĳ": 2865,
      "å®īæİĴ": 2866,
      "èĢĮä¸įæĺ¯": 2867,
      "å¼ĥ": 2868,
      "ç»ĵåĲĪ": 2869,
      "çļĦæĻº": 2870,
      "çļĦçĭ": 2871,
      "æ£®æŀĹ": 2872,
      "æĺİäºĨ": 2873,
      "åıĳæĮ¥": 2874,
      "åĴĮæĸĩåĮĸ": 2875,
      "è½»æĿ¾": 2876,
      "çļĦçĪ±": 2877,
      "ä½łéľĢè¦ģ": 2878,
      "ä¸»ä¹ī": 2879,
      "ä¸ĭåĪĹ": 2880,
      "ä½łå¥½": 2881,
      "åĩºèī²": 2882,
      "çļĦæıı": 2883,
      "è¯·åĳĬè¯īæĪĳ": 2884,
      "çĽ¸äºĴ": 2885,
      "çļĦæĦıæĢĿ": 2886,
      "ä¸ŃæľĢ": 2887,
      "çĿ¡çľł": 2888,
      "å®¶äºº": 2889,
      "æıĲä¾Ľä¸ĢäºĽ": 2890,
      "èĤ¥": 2891,
      "åħ±æľī": 2892,
      "ä¼ĺç§Ģ": 2893,
      "äºĨä¸ĢäºĽ": 2894,
      "å®ļæľŁ": 2895,
      "èĭı": 2896,
      "å©ļ": 2897,
      "åĪĹåĩº": 2898,
      "äººç±»çļĦ": 2899,
      "è©": 2900,
      "åľ¨ä¸Ģèµ·": 2901,
      "è·µ": 2902,
      "ç»Ļå®ļä¸Ģä¸ª": 2903,
      "å¨±ä¹Ĳ": 2904,
      "å°¾": 2905,
      "æĵįä½ľ": 2906,
      "çļĦçģ": 2907,
      "è§Ĥä¼Ĺ": 2908,
      "æ³¨éĩį": 2909,
      "çĥŁ": 2910,
      "é«ĺåħ´": 2911,
      "æµģè¡Į": 2912,
      "çĽ®çļĦåľ°": 2913,
      "æĺ¯ä¸Ģéĥ¨": 2914,
      "çµ": 2915,
      "å¤§å®¶": 2916,
      "çĶŁåŃĺ": 2917,
      "ä¹Łæľī": 2918,
      "èĽĭç³ķ": 2919,
      "æīĢæľīçļĦ": 2920,
      "ç¿°": 2921,
      "çĽ¸å¯¹": 2922,
      "æ¹¿": 2923,
      "æĪĳåľ¨": 2924,
      "èī¯å¥½çļĦ": 2925,
      "çļĦæ¦Ĥ": 2926,
      "åĨĻä¸Ģç¯ĩ": 2927,
      "éĿ¢å¯¹": 2928,
      "ä¹¦ç±į": 2929,
      "é¥®æĸĻ": 2930,
      "èĥģ": 2931,
      "éĢ»": 2932,
      "æĹ¶ä»£": 2933,
      "æĢ»ä¹ĭ": 2934,
      "åĿ¦": 2935,
      "å®ľ": 2936,
      "ç»ĵè®º": 2937,
      "åĮ»çĸĹé¢ĨåŁŁ": 2938,
      "è·ĳæŃ¥": 2939,
      "è®¿": 2940,
      "èĪ¹": 2941,
      "é¾Ħ": 2942,
      "ç¨ĭåº¦": 2943,
      "ä¾Ĩ": 2944,
      "åı¤è¯Ĺ": 2945,
      "éĢĤéĩı": 2946,
      "æľµ": 2947,
      "çľŁçļĦ": 2948,
      "åıªæĺ¯": 2949,
      "è¯ļ": 2950,
      "åŃ¤çĭ¬": 2951,
      "é¢Ħéĺ²": 2952,
      "çļĦæĢ»": 2953,
      "åħ¶ä¸ŃçļĦ": 2954,
      "æİ¨çĲĨ": 2955,
      "æİĮæı¡": 2956,
      "æĬ½åıĸ": 2957,
      "éĤ£äºĽ": 2958,
      "çĶļ": 2959,
      "åĵº": 2960,
      "è¿Ľåħ¥": 2961,
      "å¨ģèĥģ": 2962,
      "æ³¡": 2963,
      "å¥ı": 2964,
      "å¯»æ±Ĥ": 2965,
      "ä¸ļåĬ¡": 2966,
      "è°±": 2967,
      "åĵ¥": 2968,
      "åīįå¾Ģ": 2969,
      "æľīåĵªäºĽ": 2970,
      "æ¼Ķåĳĺ": 2971,
      "æµģçķħ": 2972,
      "è¿Ľè¡ĮåĪĨç±»": 2973,
      "202": 2974,
      "æĮĩåĩº": 2975,
      "è§ĦåĪĴ": 2976,
      "å®ŀè·µ": 2977,
      "çĭ¬çī¹çļĦ": 2978,
      "åĳ¨åĽ´": 2979,
      "æĪĲè¯Ń": 2980,
      "å¹´çļĦ": 2981,
      "æĸĩæľ¬åĨħå®¹": 2982,
      "è¾£": 2983,
      "ç»ıè¿ĩ": 2984,
      "æ¸©æļĸ": 2985,
      "ä½ĵèĤ²": 2986,
      "çıł": 2987,
      "éĩįçĤ¹": 2988,
      "æŃ§è§Ĩ": 2989,
      "çİĽä¸½": 2990,
      "å£°éŁ³": 2991,
      "æ¦Ĥå¿µ": 2992,
      "æ°§åĮĸ": 2993,
      "ä»ĸåľ¨": 2994,
      "éĽ¶": 2995,
      "ä¸Ńæĸĩ": 2996,
      "åŃ¸": 2997,
      "å¼ĢæĶ¾": 2998,
      "åįģåĪĨ": 2999,
      "å¾Ĺåĩº": 3000,
      "éĢ»è¾ĳ": 3001,
      "ç²¾ç¥ŀ": 3002,
      "èķī": 3003,
      "æĹ¨åľ¨": 3004,
      "æ¶²": 3005,
      "åĵªéĩĮ": 3006,
      "çļĦçŁŃ": 3007,
      "çº¦ç¿°": 3008,
      "æ³°": 3009,
      "çī©ä½ĵ": 3010,
      "çĹħæ¯Ĵ": 3011,
      "é¸¡èĽĭ": 3012,
      "è¿ŀæİ¥": 3013,
      "å¦Ļ": 3014,
      "å¤ªéĺ³ç³»": 3015,
      "èĩªåĬ¨åĮĸ": 3016,
      "è§ĦåĪĻ": 3017,
      "ä½¿åħ¶æĽ´": 3018,
      "æľĢä½³": 3019,
      "èĻļæĭŁ": 3020,
      "éĥ½ä¼ļ": 3021,
      "çļĦæĥ³": 3022,
      "éķ¿åº¦": 3023,
      "æĢĢ": 3024,
      "ä¸Ģæ¬¾": 3025,
      "èĩªåĬ¨é©¾é©¶": 3026,
      "çļĦæĻ¯": 3027,
      "æıĲåıĸåĩº": 3028,
      "è´Ŀ": 3029,
      "èº«ä½ĵåģ¥åº·": 3030,
      "è½®": 3031,
      "ä¸ĬéĿ¢": 3032,
      "çĲĨè®º": 3033,
      "æķ¬": 3034,
      "èľľ": 3035,
      "åĩĢ": 3036,
      "éģµ": 3037,
      "åĢ¾": 3038,
      "èĵĿèī²": 3039,
      "å´": 3040,
      "é¦Ļèķī": 3041,
      "åľ¨ä¸Ģä¸ª": 3042,
      "çļĦé£İéĻ©": 3043,
      "ä¹¡": 3044,
      "äº¡": 3045,
      "200": 3046,
      "æµ·æ»©": 3047,
      "æĸ°é²ľ": 3048,
      "åħ³éĶ®ä¿¡æģ¯": 3049,
      "æĪĳéľĢè¦ģ": 3050,
      "åĲĦä¸ª": 3051,
      "æĪĲä¸ºäºĨ": 3052,
      "èĭ±åĽ½": 3053,
      "æľīæīĢ": 3054,
      "è¡¥": 3055,
      "ç¾İå¥½çļĦ": 3056,
      "èĦ±": 3057,
      "æ··åĲĪ": 3058,
      "åĵºä¹³": 3059,
      "ä¼ĺçĤ¹": 3060,
      "çĤİ": 3061,
      "åĪĨä¸º": 3062,
      "ï¼īï¼Į": 3063,
      "æĺ¾ç¤º": 3064,
      "è¿Ļæ¬¾": 3065,
      "å¥³åŃ©": 3066,
      "èĤ¯": 3067,
      "åĨĻä¸Ģä¸ª": 3068,
      "å°Ĩä»¥ä¸ĭ": 3069,
      "æĬ±æŃī": 3070,
      "çĶ³": 3071,
      "å·¥ä¸ļ": 3072,
      "ä¸»äºº": 3073,
      "ç§¯æŀģçļĦ": 3074,
      "è´¥": 3075,
      "çŁŃæĸĩ": 3076,
      "éĹŃ": 3077,
      "éº¼": 3078,
      "æĺ¯ä¸ŃåĽ½": 3079,
      "åį·": 3080,
      "èªī": 3081,
      "é«ĺåº¦": 3082,
      "çļĦæ´»åĬ¨": 3083,
      "å°ıåŃ¦": 3084,
      "çĬ¬": 3085,
      "æ²ŁéĢļ": 3086,
      "æĸĩåĮĸåĴĮ": 3087,
      "æĩĤ": 3088,
      "ãĢĭãĢģ": 3089,
      "ç¾İä¸½çļĦ": 3090,
      "æ¡Į": 3091,
      "è¿¹": 3092,
      "è¯·ç»ĻæĪĳ": 3093,
      "èĩªè¡Įè½¦": 3094,
      "æĺ¯ä¸Ģä½į": 3095,
      "åħ«": 3096,
      "æł¹æį®æıĲä¾Ľ": 3097,
      "åľ£": 3098,
      "æ¾": 3099,
      "XX": 3100,
      "éĿ¢åĮħ": 3101,
      "å«": 3102,
      "ç®Ģè¦ģ": 3103,
      "ĠâĢľ": 3104,
      "è¯ŃéŁ³è¯ĨåĪ«": 3105,
      "éĥģ": 3106,
      "çļĦæııè¿°": 3107,
      "éķĩ": 3108,
      "ç¥ŀç»ıç½ĳç»ľ": 3109,
      "çļĦæīĭ": 3110,
      "æĭį": 3111,
      "éĻĪè¿°": 3112,
      "ï¼īãĢĤ": 3113,
      "ä¹ĭåĲİ": 3114,
      "æłĩåĩĨ": 3115,
      "å¹³çŃī": 3116,
      "æĹ¶æľŁ": 3117,
      "çļĦçŃĶæ¡Ī": 3118,
      "èİĵ": 3119,
      "ä¹ı": 3120,
      "è§¦": 3121,
      "åįļçī©": 3122,
      "èĭĹ": 3123,
      "åģ¥åº·é¥®é£Ł": 3124,
      "å»¶": 3125,
      "éŃĶæ³ķ": 3126,
      "åºĨ": 3127,
      "ĠĠ": 3128,
      "æĹ¶éĹ´åĴĮ": 3129,
      "ç¤¾åĮº": 3130,
      "çļĦæĭ": 3131,
      "æŁĲä¸ª": 3132,
      "ç¬¬ä¸Ģ": 3133,
      "å±ķçİ°": 3134,
      "åĳ¨æľ«": 3135,
      "æķ°æį®éĽĨ": 3136,
      "ä»£çłģ": 3137,
      "è½¬æį¢": 3138,
      "è¯¾ç¨ĭ": 3139,
      "èĢ³": 3140,
      "æī¾åĩº": 3141,
      "å·¦åı³": 3142,
      "éª¨": 3143,
      "é¢Ĩå¯¼": 3144,
      "å¾ĹåĪ°äºĨ": 3145,
      "åīĤ": 3146,
      "ç§°ä¸º": 3147,
      "è³": 3148,
      "åı¤ä»£": 3149,
      "ç®ĢåįķçļĦ": 3150,
      "åĬĽçļĦ": 3151,
      "çļĦæĢ§": 3152,
      "æľŁéĹ´": 3153,
      "å®Ĺ": 3154,
      "æ¬£èµı": 3155,
      "çļĦæİ¨": 3156,
      "åĨįçĶŁ": 3157,
      "æĸĩæľ¬ä¸ŃçļĦ": 3158,
      "åĨ¥": 3159,
      "åĪĨéħį": 3160,
      "ä¼ĳæģ¯": 3161,
      "æĶ¾åľ¨": 3162,
      "æĦŁåıĹåĪ°": 3163,
      "è¯Ńè¨Ģæ¨¡åŀĭ": 3164,
      "çļĦæķĪ": 3165,
      "çĴ": 3166,
      "çļĦæĮĳæĪĺ": 3167,
      "è®²è¿°äºĨ": 3168,
      "æĹ§": 3169,
      "äº¿": 3170,
      "æ¸ħæ´ģ": 3171,
      "åĮºåĿĹ": 3172,
      "æħ§": 3173,
      "åĵģè´¨": 3174,
      "å£®": 3175,
      "çĪ±å¥½": 3176,
      "çĶļèĩ³": 3177,
      "ä»Ģéº¼": 3178,
      "çģ¾å®³": 3179,
      "å®ĥåı¯ä»¥": 3180,
      "å®ģ": 3181,
      "è½½": 3182,
      "æĺŁæľŁ": 3183,
      "èĽĭçĻ½è´¨": 3184,
      "åĨĴéĻ©": 3185,
      "èĥ½åĲ¦": 3186,
      "ä¸ĥ": 3187,
      "ä¸ºæĪĳ": 3188,
      "ªæĺİ": 3189,
      "åłĤ": 3190,
      "ĠæĪĳ": 3191,
      "å¯¿": 3192,
      "è¡¨æ¼Ķ": 3193,
      "å½Ĵç±»": 3194,
      "åıĬæĹ¶": 3195,
      "æĪ¿éĹ´": 3196,
      "åĮĢ": 3197,
      "å¤§æ°Ķ": 3198,
      "è¿Ļæľ¬ä¹¦": 3199,
      "çĻĮ": 3200,
      "çĭ¬ç«ĭ": 3201,
      "æĹĭ": 3202,
      "ãĢĭãĢģãĢĬ": 3203,
      "çļĦåİŁåĽł": 3204,
      "å°¤åħ¶": 3205,
      "é¼ł": 3206,
      "âĢĶâĢĶ": 3207,
      "çĶŁæ´»æĸ¹å¼ı": 3208,
      "ç§įæĹı": 3209,
      "æĢĿç»´": 3210,
      "æĿĢ": 3211,
      "æĥħåĨµä¸ĭ": 3212,
      "çľĭçĶµå½±": 3213,
      "èĤª": 3214,
      "èĦĤèĤª": 3215,
      "èĮĦ": 3216,
      "é»ĺ": 3217,
      "åħ·ä½ĵçļĦ": 3218,
      "å¼ºè°ĥäºĨ": 3219,
      "çĽ¸åºĶ": 3220,
      "æ®Ĭ": 3221,
      "«èĲ¨": 3222,
      "é¢Ĺç³ĸæŀľ": 3223,
      "åĵºä¹³åĬ¨çī©": 3224,
      "éĻ¤äºĨ": 3225,
      "æľĢå¥½çļĦ": 3226,
      "å®ĥæĺ¯": 3227,
      "å®¾": 3228,
      "å¹¶æıĲä¾Ľ": 3229,
      "æķı": 3230,
      "å½¢å®¹è¯į": 3231,
      "è¿ª": 3232,
      "è®¤è¯Ĩ": 3233,
      "è¯º": 3234,
      "é»ĳæ´ŀ": 3235,
      "å®¤æ°Ķä½ĵ": 3236,
      "çĶŁæĪĲåķĨåĵģ": 3237,
      "æ¦": 3238,
      "åľ¨æľªæĿ¥": 3239,
      "äºĭçī©": 3240,
      "æĭĮ": 3241,
      "çļĦèĥ½åĬĽ": 3242,
      "èĳ±": 3243,
      "èļ": 3244,
      "ç§įç±»": 3245,
      "æĺĵäºİ": 3246,
      "åĢŁ": 3247,
      "å¼ºçĥĪ": 3248,
      "ä¼ĳéĹ²": 3249,
      "äºĴåĬ¨": 3250,
      "æ¶Īè´¹èĢħ": 3251,
      "å½¼": 3252,
      "æ»¡æĦı": 3253,
      "äºĨä¸Ģç§į": 3254,
      "æľĢæĸ°": 3255,
      "å¼¹": 3256,
      "çļĦç©": 3257,
      "èĦı": 3258,
      "éĢĢ": 3259,
      "æİ¢è®¨äºĨ": 3260,
      "ä¹Ŀ": 3261,
      "è°ĵ": 3262,
      "çļĦä¸»è¦ģè§ĤçĤ¹": 3263,
      "è¹": 3264,
      "æľīè¶£çļĦ": 3265,
      "æ¼Ĥ": 3266,
      "äº¤æĺĵ": 3267,
      "æľĢå¥½": 3268,
      "æĹ¢": 3269,
      "å¸Ŀ": 3270,
      "åįļçī©é¦Ĩ": 3271,
      "æ¶Īæŀģ": 3272,
      "æľĥ": 3273,
      "åĴ¨": 3274,
      "å·Ŀ": 3275,
      "è¿ĺéľĢè¦ģ": 3276,
      "æ¯ıä¸ªäººéĥ½": 3277,
      "èĢĹ": 3278,
      "å¹´é¾Ħ": 3279,
      "ç¶": 3280,
      "å®Įæķ´": 3281,
      "çĸ«æĥħ": 3282,
      "æİ¥ä¸ĭæĿ¥": 3283,
      "éĢĴ": 3284,
      "Ġæııè¿°": 3285,
      "è´ŁéĿ¢å½±åĵį": 3286,
      "å¤ļçļĦ": 3287,
      "çļĦç³ĸ": 3288,
      "è¾ħ": 3289,
      "è¿ħ": 3290,
      "å®£ä¼ł": 3291,
      "çĶŁéķ¿": 3292,
      "è§Ĩé¢ĳ": 3293,
      "è®¨è®ºäºĨ": 3294,
      "é¡¶": 3295,
      "çĪ¶": 3296,
      "æĪĳæĹłæ³ķ": 3297,
      "èº«å¿ĥ": 3298,
      "çªĹ": 3299,
      "ä¹Łå¾Ī": 3300,
      "çļĦç¬¬": 3301,
      "æĢ§èĥ½": 3302,
      "æ³ķåĽ½": 3303,
      "çľĭèµ·æĿ¥": 3304,
      "åħħåĪĨ": 3305,
      "çĵľ": 3306,
      "èģĬå¤©": 3307,
      "è¯Ńæ³ķéĶĻè¯¯": 3308,
      "åĴ¨è¯¢": 3309,
      "ç»ķ": 3310,
      "æķ¢": 3311,
      "è§Ī": 3312,
      "ç¿»è¯ĳæĪĲ": 3313,
      "æĺŁçĲĥ": 3314,
      "äºĨè®¸å¤ļ": 3315,
      "çļĦéŁ³ä¹Ĳ": 3316,
      "éķ¿æľŁ": 3317,
      "ä½łä»¬": 3318,
      "çļĦçİ¯å¢ĥ": 3319,
      "ä¸Ĭä¸ĭæĸĩ": 3320,
      "åĲ¬èµ·æĿ¥": 3321,
      "ä¸Ģæľ¬": 3322,
      "èģªæĺİ": 3323,
      "æĢ»ç»Ł": 3324,
      "æĥł": 3325,
      "çĶŁæĹ¥": 3326,
      "éĺ¶": 3327,
      "å¿ĥæĥħ": 3328,
      "çļĦçĹ": 3329,
      "åĵ²": 3330,
      "è§Ĥå¯Ł": 3331,
      "çļĦç²": 3332,
      "èī²å½©": 3333,
      "çķª": 3334,
      "éº»": 3335,
      "åıĺå¾ĹæĽ´åĬł": 3336,
      "é½": 3337,
      "çļĦæīĢ": 3338,
      "èį£": 3339,
      "ï¼ŁâĢĿ": 3340,
      "å¹´æĿ¥": 3341,
      "ä¼łæĴŃ": 3342,
      "è§£åĨ³éĹ®é¢ĺ": 3343,
      "åĮºåĿĹéĵ¾": 3344,
      "æİ¨åĩº": 3345,
      "çļĦæ¯Ķ": 3346,
      "çļĦçŁ¥": 3347,
      "æĺİæĺ¾": 3348,
      "ç§»åĬ¨": 3349,
      "çļĦæķ°éĩı": 3350,
      "éĻĨ": 3351,
      "éĿŀå¸¸å¥½": 3352,
      "ç»´æĬ¤": 3353,
      "çľĭçľĭ": 3354,
      "é¢ĦæĬ¥": 3355,
      "åĳĪçİ°": 3356,
      "èī¾": 3357,
      "çļĦç¥": 3358,
      "å¹¶æ²¡æľī": 3359,
      "çº¯": 3360,
      "ä½ĨæĪĳ": 3361,
      "å¯¹çİ¯å¢ĥ": 3362,
      "éķľ": 3363,
      "å·¨å¤§": 3364,
      "çĶ²": 3365,
      "æĻºèĥ½å®¶å±ħ": 3366,
      "å®¡": 3367,
      "çĸ²": 3368,
      "çĺ": 3369,
      "çĽ´åĪ°": 3370,
      "åį±éĻ©": 3371,
      "æĳĦåħ¥": 3372,
      "éĽ·": 3373,
      "ï¼ļãĢĬ": 3374,
      "çªģçĦ¶": 3375,
      "çļĦè¡Įä¸º": 3376,
      "åĲĮä¹īè¯į": 3377,
      "èī¯å¥½": 3378,
      "æĭ¼åĨĻ": 3379,
      "çļĦæ±": 3380,
      "è¸ª": 3381,
      "è¿ĩåº¦": 3382,
      "ç¾İåħĥ": 3383,
      "åĴĮç¤¾ä¼ļ": 3384,
      "åĮºåŁŁ": 3385,
      "å¡«": 3386,
      "ç¡¬": 3387,
      "çļĦéĢīæĭ©": 3388,
      "è§Ħå¾ĭ": 3389,
      "æĤ¨éľĢè¦ģ": 3390,
      "èĻ«": 3391,
      "éĵ¶è¡Į": 3392,
      "æŃ¦": 3393,
      "åĨ¥æĥ³": 3394,
      "çī¹æ®Ĭ": 3395,
      "å±ĭ": 3396,
      "éĴ¢": 3397,
      "åĶĲ": 3398,
      "åĽŀå®¶": 3399,
      "çļĦçĥŃ": 3400,
      "æį·": 3401,
      "Ġ2": 3402,
      "âĢ¦": 3403,
      "æĶ¯ä»ĺ": 3404,
      "çĽ®çļĦ": 3405,
      "çļĦçĿ": 3406,
      "çļĦç¼": 3407,
      "éļıæĹ¶": 3408,
      "å°ıçĭĹ": 3409,
      "çĶ°": 3410,
      "åīįæĻ¯": 3411,
      "çĵ¶": 3412,
      "åı¯çĪ±": 3413,
      "èħ¿": 3414,
      "å»ºè®¾": 3415,
      "çĶŁæĪĲä¸Ģæ®µ": 3416,
      "äººæ°ĳ": 3417,
      "ä¸°å¯ĮçļĦ": 3418,
      "å¤§èĩªçĦ¶": 3419,
      "çĶ¨çļĦ": 3420,
      "åĽŀæĶ¶": 3421,
      "ä¸ĭåįĪ": 3422,
      "åı¹": 3423,
      "ä»ĸä»¬çļĦå¯¹è¯ĿåĨħå®¹": 3424,
      "å¹ķ": 3425,
      "çļĦæ¸©": 3426,
      "æł·çļĦ": 3427,
      "åĦ¿ç«¥": 3428,
      "æµ®": 3429,
      "æ·¡": 3430,
      "åĪĨæĪĲ": 3431,
      "éĩįå¤į": 3432,
      "åŃĲçļĦ": 3433,
      "éĹª": 3434,
      "èĦ¸": 3435,
      "åĪ°è¾¾": 3436,
      "æĭĽ": 3437,
      "åŁºåĽł": 3438,
      "å¦ĤæŃ¤": 3439,
      "åĪĽå»ºä¸Ģä¸ª": 3440,
      "æĪĳæľĢè¿ĳ": 3441,
      "ç¾İå¥½": 3442,
      "ä»İæĸĩç«łä¸ŃæıĲåıĸ": 3443,
      "æĦīå¿«": 3444,
      "æľīæ²¡æľī": 3445,
      "åĵģç§į": 3446,
      "æģ©": 3447,
      "æĶ¾åħ¥": 3448,
      "çļĦç¨": 3449,
      "çļĦæ¸¸": 3450,
      "æ´Ľ": 3451,
      "åı¯åĨįçĶŁ": 3452,
      "æľīè®¸å¤ļ": 3453,
      "çĶµåŃĲéĤ®ä»¶": 3454,
      "æĸ¼": 3455,
      "å¡ŀ": 3456,
      "ç¯®çĲĥ": 3457,
      "æ¶µ": 3458,
      "ä»İæĸĩç«łä¸ŃæıĲåıĸåĩº": 3459,
      "ç©¿çĿĢ": 3460,
      "è¿Ŀ": 3461,
      "æĪĳä»¬å°Ĩ": 3462,
      "åľ¨äºİ": 3463,
      "çī¹èī²": 3464,
      "æīĺ": 3465,
      "çļĦä¸Ģç§į": 3466,
      "ç§ĭå¤©": 3467,
      "èµ¢": 3468,
      "çļĦæĥ³æ³ķ": 3469,
      "è¢«è®¤ä¸º": 3470,
      "çļĦæ¼": 3471,
      "ĽåĽ´": 3472,
      "çĶŁç´ł": 3473,
      "æľĢå¤§": 3474,
      "ä¿ĿæĬ¤çİ¯å¢ĥ": 3475,
      "éŁ©": 3476,
      "èĥŀ": 3477,
      "è¿Ļé¡¹": 3478,
      "åĵģå°Ŀ": 3479,
      "çļĦæķĻ": 3480,
      "åł¡": 3481,
      "çļĦæīĢæľī": 3482,
      "çļĦçĿ¡": 3483,
      "é£ŁæĿĲ": 3484,
      "çļĦåŁİå¸Ĥ": 3485,
      "å¹³éĿ¢": 3486,
      "çļĦåįķè¯į": 3487,
      "äºĪ": 3488,
      "æķ°åŃ¦é¢ĺ": 3489,
      "éļ¾ä»¥": 3490,
      "éĤ£ä¸ª": 3491,
      "çī©ç§į": 3492,
      "æııè¿°äºĨ": 3493,
      "éģĩåĪ°": 3494,
      "åįł": 3495,
      "é£İæĻ¯": 3496,
      "æĪĲå°±": 3497,
      "æĻ´": 3498,
      "è®°å¿Ĩ": 3499,
      "æĪĲåĪĨ": 3500,
      "åı¯ä»¥è®©": 3501,
      "çļĦæŃĮ": 3502,
      "çļĦç½": 3503,
      "ä¸ĢæĿ¡": 3504,
      "åįĸ": 3505,
      "çĿĽ": 3506,
      "å°º": 3507,
      "è§Ħæ¨¡": 3508,
      "çļĦæĦŁè§ī": 3509,
      "æª": 3510,
      "åĲ«æľī": 3511,
      "æī¹": 3512,
      "çĶŁæĪĲåķĨåĵģæĸĩæ¡Ī": 3513,
      "å½Ĵç±»ä¸º": 3514,
      "è¿Ļé¦ĸ": 3515,
      "æĿ¥æºĲ": 3516,
      "çĪĨ": 3517,
      "å»ºè®®æĤ¨": 3518,
      "éĢĥ": 3519,
      "ä¸Ģé¡¹": 3520,
      "ä»Ķ": 3521,
      "è¿ĺåī©ä¸ĭ": 3522,
      "å°½åı¯èĥ½": 3523,
      "çļĦä½¿çĶ¨": 3524,
      "ä¸»è¯Ń": 3525,
      "çļĦæłĩé¢ĺ": 3526,
      "æĹ©é¤Ĳ": 3527,
      "é£ŀè¡Į": 3528,
      "çĹĩçĬ¶": 3529,
      "è¿Ľè¡ĮäºĨ": 3530,
      "çļĦè¿ĲåĬ¨": 3531,
      "çł´åĿı": 3532,
      "çļĦä¸»è¦ģåĨħå®¹": 3533,
      "ç¬¬ä¸ī": 3534,
      "åĨľä¸ļ": 3535,
      "æ·ĭ": 3536,
      "åŃ¦ä¼ļ": 3537,
      "å½¢è±¡": 3538,
      "çļĦçĿ¡çľł": 3539,
      "åĲī": 3540,
      "æľīæķĪåľ°": 3541,
      "ä¼Ĭ": 3542,
      "çļĦç¤¾ä¼ļ": 3543,
      "çļĦéľĢæ±Ĥ": 3544,
      "ç¬¦åı·": 3545,
      "ä»ĸäºº": 3546,
      "é¦Ī": 3547,
      "çŀ": 3548,
      "èĤº": 3549,
      "æŃĮæĽ²": 3550,
      "Ġ3": 3551,
      "åıĬåħ¶": 3552,
      "æľŁå¾ħ": 3553,
      "åį«çĶŁ": 3554,
      "ä¾¿åĪ©": 3555,
      "æīĢéľĢ": 3556,
      "ç»Ļå®ļçļĦæĸĩæľ¬": 3557,
      "èľĤ": 3558,
      "æĪ´": 3559,
      "èĭ¥": 3560,
      "äºĶä¸ª": 3561,
      "åī¯": 3562,
      "åħħæ»¡äºĨ": 3563,
      "é»Ħèī²": 3564,
      "åģĩè®¾": 3565,
      "åĴĮæĮĳæĪĺ": 3566,
      "åĬ©æīĭ": 3567,
      "æĦŁåħ´è¶£": 3568,
      "å¼±": 3569,
      "é£ŁçĶ¨": 3570,
      "GP": 3571,
      "åĬŀåħ¬": 3572,
      "æĢķ": 3573,
      "æ±¤å§Ĩ": 3574,
      "å¸¸è§ģçļĦ": 3575,
      "ç´¯": 3576,
      "è¿Ľå±ķ": 3577,
      "æĳĺ": 3578,
      "æĪĺäºī": 3579,
      "çļĦç©º": 3580,
      "è§Ħå®ļ": 3581,
      "åºĶè¯¥æĺ¯": 3582,
      "åİŁçĲĨ": 3583,
      "çľĭåĪ°äºĨ": 3584,
      "çļĦæĶ¯": 3585,
      "çĿ£": 3586,
      "Ġå°Ĩ": 3587,
      "çļĦæ·": 3588,
      "åĸľå¥½": 3589,
      "æ¡¥": 3590,
      "ç¾İçļĦ": 3591,
      "æ£Ģæµĭ": 3592,
      "éĿŀå¸¸éĩįè¦ģ": 3593,
      "çĻ¼": 3594,
      "é¡¾å®¢": 3595,
      "æĢ§åĪ«": 3596,
      "æ²Ļæ»©": 3597,
      "æĤ²": 3598,
      "åº¦è¿ĩ": 3599,
      "å°±ä¸ļ": 3600,
      "åĵ¦": 3601,
      "åıĺæĪĲ": 3602,
      "éĩĮæľī": 3603,
      "æģĴ": 3604,
      "çļĦçŁ¥è¯Ĩ": 3605,
      "éĩĮçļĦ": 3606,
      "èĸĦ": 3607,
      "ä¹ĭå¤ĸ": 3608,
      "çļĦæĻºèĥ½": 3609,
      "éĿ¢ç§¯": 3610,
      "åĲ¹": 3611,
      "ä¸ĵæ³¨": 3612,
      "çļĦå®īåħ¨": 3613,
      "è¯Ŀé¢ĺ": 3614,
      "ç¼ºä¹ı": 3615,
      "æĻĤ": 3616,
      "å²¸": 3617,
      "æ¸©å®¤æ°Ķä½ĵ": 3618,
      "åĨħå¿ĥ": 3619,
      "é¢Ħç®Ĺ": 3620,
      "éĽĦ": 3621,
      "ä»°": 3622,
      "ä¸ĢæĿ¯": 3623,
      "åŁĥ": 3624,
      "åı¯éĿł": 3625,
      "åı¯ä»¥æıĲé«ĺ": 3626,
      "æĹ¶åħī": 3627,
      "éĻĦè¿ĳ": 3628,
      "åĲ¬è¯´": 3629,
      "è£ħé¥°": 3630,
      "åĴĮæ²»çĸĹ": 3631,
      "æ¡£": 3632,
      "å·®å¼Ĥ": 3633,
      "é£ĺ": 3634,
      "è§£éĩĬä¸Ģä¸ĭ": 3635,
      "æ¸¯": 3636,
      "è®¡ç®Ĺæľºç§ĳåŃ¦": 3637,
      "çļĦæĮĩ": 3638,
      "æĦīæĤ¦": 3639,
      "èĬ±åĽŃ": 3640,
      "èĩªä¿¡": 3641,
      "çĸ«èĭĹ": 3642,
      "è®¾æĸ½": 3643,
      "å§ĵ": 3644,
      "å®ŀæĸ½": 3645,
      "æıĲéĨĴ": 3646,
      "æĺ¯æĪĳ": 3647,
      "åī§æĥħ": 3648,
      "æµªè´¹": 3649,
      "ç»ĦåĲĪ": 3650,
      "ãĢģâĢľ": 3651,
      "åĮĸåĴĮ": 3652,
      "æīĢåľ¨": 3653,
      "èİ«": 3654,
      "è´¢åĬ¡": 3655,
      "ä¸»è§Ĵ": 3656,
      "çĶµè¯Ŀ": 3657,
      "ä¸Ģéĥ¨": 3658,
      "ä¸ªæľĭåıĭ": 3659,
      "çļĦè¯Ńè¨Ģ": 3660,
      "åĿĩåĮĢ": 3661,
      "åĴĮä¸į": 3662,
      "in": 3663,
      "çĹħäºº": 3664,
      "çļĦåģ¥åº·": 3665,
      "æĺ¯ä¸ĢåĲį": 3666,
      "åľ¨è¿Ļ": 3667,
      "ä¸ŃæĢ§": 3668,
      "éģĩåĪ°äºĨ": 3669,
      "å¤§æķ°æį®": 3670,
      "åĪĨæŀĲåĴĮ": 3671,
      "èİ·å¾ĹäºĨ": 3672,
      "æł¹æį®ç»Ļå®ļçļĦæĸĩæľ¬": 3673,
      "åİ¨": 3674,
      "åıįé¦Ī": 3675,
      "éļĶ": 3676,
      "åĴĮä¸Ģä¸ª": 3677,
      "æıĲåĩºäºĨ": 3678,
      "éħĴåºĹ": 3679,
      "çĽĴ": 3680,
      "ç»Ĩèĥŀ": 3681,
      "æĪĲåĳĺ": 3682,
      "çĪ¬": 3683,
      "åĨįæ¬¡": 3684,
      "ä¸ĢäºĽåħ³äºİ": 3685,
      "å¿§": 3686,
      "çĨĬçĮ«": 3687,
      "æ°ı": 3688,
      "ä»¥ä¸ĭæĺ¯ä¸Ģéģĵ": 3689,
      "åħ¨éĿ¢": 3690,
      "çĪ½": 3691,
      "èĦī": 3692,
      "æĶ¶éĽĨ": 3693,
      "åĵ²åŃ¦": 3694,
      "å¸¸å¸¸": 3695,
      "ç¦ģ": 3696,
      "èįīèİĵ": 3697,
      "èµĸ": 3698,
      "er": 3699,
      "åı¯åĨįçĶŁèĥ½æºĲ": 3700,
      "æµªæ¼«": 3701,
      "èĳ¡èĲ": 3702,
      "èĳ¡èĲĦ": 3703,
      "ä¼Ł": 3704,
      "ä¸įå¤ª": 3705,
      "è§Ĵåº¦": 3706,
      "åŃĹæ¯į": 3707,
      "åħĶ": 3708,
      "çĲĨè§£åĴĮ": 3709,
      "çļĦé¢ľèī²": 3710,
      "çķªèĮĦ": 3711,
      "å¤ªéĺ³èĥ½": 3712,
      "å°ıåŃ¦æķ°åŃ¦é¢ĺ": 3713,
      "å¯¹äººç±»": 3714,
      "æĪĲç»©": 3715,
      "è¯·æıĲä¾Ľ": 3716,
      "ä»¥ä¸ĭæĺ¯ä¸Ģéģĵå°ıåŃ¦æķ°åŃ¦é¢ĺ": 3717,
      "ä¸Ĭè¿°": 3718,
      "æĬ«èĲ¨": 3719,
      "åº¦åģĩ": 3720,
      "ä½łè®¤ä¸º": 3721,
      "éĺ´": 3722,
      "æķ¦": 3723,
      "çı¾": 3724,
      "ç¦»å¼Ģ": 3725,
      "ãĢĭãĢĤ": 3726,
      "çķĻä¸ĭ": 3727,
      "å®¤åĨħ": 3728,
      "çĤ¸": 3729,
      "åĴĮåıĳå±ķ": 3730,
      "æ¶īåıĬåĪ°": 3731,
      "æįķ": 3732,
      "äººåľ¨": 3733,
      "åı¦ä¸Ģä¸ª": 3734,
      "çŃīéĹ®é¢ĺ": 3735,
      "æĻºæħ§": 3736,
      "èĩªä¸»": 3737,
      "éĥ¨éĹ¨": 3738,
      "ç²Ĵ": 3739,
      "çºłéĶĻ": 3740,
      "çļĦæĦıä¹ī": 3741,
      "ä¼łè¾¾": 3742,
      "ç»´çĶŁç´ł": 3743,
      "åħįçĸ«": 3744,
      "èĤ¯å®ļ": 3745,
      "çĶ·åŃ©": 3746,
      "¹é¥": 3747,
      "åĪĻæĺ¯": 3748,
      "å¤§å°ı": 3749,
      "ar": 3750,
      "å½¢çĬ¶": 3751,
      "æĽ¾ç»ı": 3752,
      "çī©çĲĨåŃ¦": 3753,
      "å°Ĩå®ĥä»¬": 3754,
      "æĲħ": 3755,
      "éģŃ": 3756,
      "èı²": 3757,
      "¹é¥ª": 3758,
      "è¯¢éĹ®": 3759,
      "åĶ¯": 3760,
      "æĤł": 3761,
      "ä¹ĭå¤Ħ": 3762,
      "çļĦæł¸": 3763,
      "æĸ°åŀĭ": 3764,
      "æĮĩå®ļ": 3765,
      "åĲĪéĢĤçļĦ": 3766,
      "æ¬§æ´²": 3767,
      "èĮĥåĽ´åĨħ": 3768,
      "æī°": 3769,
      "çļĦç»ĵæŀľ": 3770,
      "æ¸¸å®¢": 3771,
      "ç´§å¼ł": 3772,
      "ä¼¼ä¹İ": 3773,
      "om": 3774,
      "çļĩ": 3775,
      "èĢĥè¯ķ": 3776,
      "èıľåĵģ": 3777,
      "åĪºæ¿Ģ": 3778,
      "æŀģç«¯": 3779,
      "ä¹±": 3780,
      "çº·": 3781,
      "ä¸ºæĤ¨æıĲä¾Ľ": 3782,
      "è®¾ç½®": 3783,
      "æĸ¹éĿ¢çļĦ": 3784,
      "è·¨": 3785,
      "åĭķ": 3786,
      "çļĦç²¾": 3787,
      "å¿ł": 3788,
      "çļĦæ²»": 3789,
      "å°±åı¯ä»¥": 3790,
      "æī¬": 3791,
      "25": 3792,
      "åĨħéĥ¨": 3793,
      "è·¯ä¸Ĭ": 3794,
      "ç»¼åĲĪ": 3795,
      "æĺ¥å¤©": 3796,
      "ç´«": 3797,
      "11": 3798,
      "å°ıæĺİæīĭ": 3799,
      "åĩºå¤Ħ": 3800,
      "ä¸ŃçļĦåºĶçĶ¨": 3801,
      "çļĦç³ĸæŀľ": 3802,
      "çļĦæ¶": 3803,
      "è¿Ķ": 3804,
      "âĢĿãĢģâĢľ": 3805,
      "åıĤè§Ĥ": 3806,
      "ä¹Ķ": 3807,
      "å¹´è½»çļĦ": 3808,
      "æľīä¸Ģ": 3809,
      "åħĪçĶŁ": 3810,
      "æľīä¸ĢäºĽ": 3811,
      "å¢Ļ": 3812,
      "è¿ħéĢŁ": 3813,
      "éĿŀå¸¸æĦŁè°¢": 3814,
      "å°Ĩåľ¨": 3815,
      "è¿Ļä¸¤ä¸ª": 3816,
      "è´´": 3817,
      "èĥ¡": 3818,
      "çļĦæıĲ": 3819,
      "åĪĨåŃĲ": 3820,
      "è¿Ļå®¶é¤Ĳåİħ": 3821,
      "ä¸ĭéĻį": 3822,
      "èĬĤçº¦": 3823,
      "å¯¹æĸ¹": 3824,
      "çģŃ": 3825,
      "æĻ¨": 3826,
      "çļĦä¸Ģæ®µ": 3827,
      "åħ´å¥ĭ": 3828,
      "çļĦæ¼Ķ": 3829,
      "æľīçĤ¹": 3830,
      "çļĦæŀ": 3831,
      "éĺ²æŃ¢": 3832,
      "èĤ´": 3833,
      "GPT": 3834,
      "çĶµæ±ł": 3835,
      "æĺ¯éĿŀå¸¸": 3836,
      "è½¦è¾Ĩ": 3837,
      "å·¨å¤§çļĦ": 3838,
      "åħ·å¤ĩ": 3839,
      "é¡ºåºı": 3840,
      "åĬłä¸Ĭ": 3841,
      "èĩªçĦ¶çģ¾å®³": 3842,
      "è¦Ĩ": 3843,
      "è¢ĸ": 3844,
      "åĮ»éĻ¢": 3845,
      "äº§çĶŁäºĨ": 3846,
      "æĲħæĭĮ": 3847,
      "è¯¥æĸĩæľ¬": 3848,
      "åĵĪåĪ©": 3849,
      "æ¬²": 3850,
      "ç¾Ĭ": 3851,
      "çŃīå¾ħ": 3852,
      "è¯Ńæ°Ķ": 3853,
      "å¤§çº¦": 3854,
      "ä¸¾è¡Į": 3855,
      "éĩįè§Ĩ": 3856,
      "å±ħæ°ĳ": 3857,
      "å¾Īæľī": 3858,
      "å¼Ģå¤´": 3859,
      "ä¼ĺè´¨": 3860,
      "æĥ³æ³ķ": 3861,
      "çļĦå°ıè¯´": 3862,
      "æµ·å¹³éĿ¢": 3863,
      "ä¸»è¦ģè§ĤçĤ¹": 3864,
      "çĶŁæĪĲä¸Ģç¯ĩ": 3865,
      "è®¤çŁ¥": 3866,
      "èİī": 3867,
      "æľīçļĦ": 3868,
      "æīĵå¼Ģ": 3869,
      "èĬ³": 3870,
      "åį³ä½¿": 3871,
      "åħħè¶³": 3872,
      "èĤĮèĤī": 3873,
      "èĴ¸": 3874,
      "æĸĩç«łä¸ŃçļĦ": 3875,
      "åħµ": 3876,
      "çļĦæĬĢèĥ½": 3877,
      "ä¾µ": 3878,
      "éĢĤå½ĵçļĦ": 3879,
      "æĪĲè¯Ńåĩºå¤Ħ": 3880,
      "æī®": 3881,
      "æĿ¥è§£åĨ³": 3882,
      "å°ıæĿİ": 3883,
      "æĹ¶åĪ»": 3884,
      "æ½ľåľ¨": 3885,
      "çļĦä¸Ģéĥ¨åĪĨ": 3886,
      "åįģå¹´": 3887,
      "çĮİ": 3888,
      "ç»Łè®¡": 3889,
      "è²Į": 3890,
      "ä¸Ģåľº": 3891,
      "æĮĩå¯¼": 3892,
      "é»ĳèī²": 3893,
      "å¿½": 3894,
      "é¤Ĳé¦Ĩ": 3895,
      "åŃĲéĩĮ": 3896,
      "åį°è±¡": 3897,
      "è¯·æıĲåıĸ": 3898,
      "Jo": 3899,
      "è¢«å¹¿æ³Ľ": 3900,
      "åĩĨç¡®åľ°": 3901,
      "hon": 3902,
      "äººåı£": 3903,
      "å½¼æŃ¤": 3904,
      "å½±åĥı": 3905,
      "åħĭæľį": 3906,
      "åĪĨå¸ĥ": 3907,
      "çİ¯å¢ĥæ±¡æŁĵ": 3908,
      "çľŁå®ŀ": 3909,
      "éĽĨä¸Ń": 3910,
      "ä½¿çĶ¨äºĨ": 3911,
      "è´¦": 3912,
      "å¿ĥèĦı": 3913,
      "çłĶåıĳ": 3914,
      "an": 3915,
      "çļĦæİªæĸ½": 3916,
      "èĩªèº«": 3917,
      "å¤ľæĻļ": 3918,
      "æĪĳè§īå¾Ĺ": 3919,
      "æİĴåºı": 3920,
      "çļĦè®¾è®¡": 3921,
      "å¤ļæķ°": 3922,
      "çĶµå½±çļĦ": 3923,
      "è¾ħåĬ©": 3924,
      "ä¿¡ä»»": 3925,
      "åĸ»": 3926,
      "æİĪ": 3927,
      "çļĦåŁºç¡Ģ": 3928,
      "åĨ¬åŃ£": 3929,
      "16": 3930,
      "èĢĮæĺ¯": 3931,
      "ãĢĭï¼Į": 3932,
      "äºĨå¾Īå¤ļ": 3933,
      "ç¨İ": 3934,
      "åħ¬éĩĮ": 3935,
      "åŁ¹åħ»": 3936,
      "æĴ°": 3937,
      "æľĢå¤§çļĦ": 3938,
      "è¶ħå¸Ĥ": 3939,
      "æĪĳæĺ¯": 3940,
      "çº¤": 3941,
      "ç¬¬ä¸Ģä¸ª": 3942,
      "å¿ĥçĲĨåģ¥åº·": 3943,
      "æľĢé«ĺ": 3944,
      "ç®Ģæ´ģæĺİäºĨ": 3945,
      "èĮ¨": 3946,
      "çĲ´": 3947,
      "æĬ½åıĸåĩº": 3948,
      "æĽ´å¿«": 3949,
      "åı¤èĢģ": 3950,
      "å®£å¸ĥ": 3951,
      "çļĦä»»åĬ¡": 3952,
      "é¡µ": 3953,
      "ä½ľä¸ºä¸Ģä¸ª": 3954,
      "æĶ»åĩ»": 3955,
      "äººä»¬çļĦ": 3956,
      "ç¢İ": 3957,
      "å¤§èĦĳ": 3958,
      "ä¸¤ç§į": 3959,
      "æĸĩæĺİ": 3960,
      "çĽ¾": 3961,
      "çļĦæ²»çĸĹ": 3962,
      "åĴª": 3963,
      "çļĦæł¸å¿ĥ": 3964,
      "äººä½ĵ": 3965,
      "å¯Ĩçłģ": 3966,
      "ç£¨": 3967,
      "æĤ¬": 3968,
      "éĢ²": 3969,
      "çļĦæľįåĬ¡": 3970,
      "åĬ¨åĬĽ": 3971,
      "è®¡ç®Ĺæľºè§Ĩè§ī": 3972,
      "éĺ»": 3973,
      "èį·": 3974,
      "æĪĳæ²¡æľī": 3975,
      "çļĦæ¦Ĥå¿µ": 3976,
      "åĽ¾ä¹¦": 3977,
      "è¿ĳå¹´æĿ¥": 3978,
      "æĢ»çļĦ": 3979,
      "æŀĦå»º": 3980,
      "è§Ĩä¸º": 3981,
      "å¹¶ä¸º": 3982,
      "èĢį": 3983,
      "åŃĲåĴĮ": 3984,
      "èĤ¡ç¥¨": 3985,
      "åħ¬æŃ£": 3986,
      "å¾Īå¤§": 3987,
      "çİ©å®¶": 3988,
      "çļĦæ¢": 3989,
      "çĶĺ": 3990,
      "ä½ľå®¶": 3991,
      "éĩįå¤§": 3992,
      "æĪĸåħ¶ä»ĸ": 3993,
      "éķ¿æĹ¶éĹ´": 3994,
      "éĺµ": 3995,
      "èĩ³åħ³": 3996,
      "å¾ªçİ¯": 3997,
      "åĩ½": 3998,
      "æıĲç¤º": 3999,
      "åıªèĥ½": 4000,
      "åħ¬åĽŃéĩĮ": 4001,
      "åı¯ä»¥å°Ĩ": 4002,
      "æ²¿": 4003,
      "åŃĺåĤ¨": 4004,
      "ħåĬĽ": 4005,
      "åĲįä¸º": 4006,
      "è¿Ľè¡Įæĳĺè¦ģ": 4007,
      "æĺİçĻ½": 4008,
      "äº§åĵģçļĦ": 4009,
      "é¢ĨåŁŁçļĦ": 4010,
      "æĽ´å®¹æĺĵ": 4011,
      "æĿİæĺİ": 4012,
      "æ¢ħ": 4013,
      "çļĦç½ĳ": 4014,
      "æĽ¼": 4015,
      "ä¸Ģåħ±æľī": 4016,
      "çļĦæ¬": 4017,
      "åĴĮå®īåħ¨": 4018,
      "ç»ĵæĿŁ": 4019,
      "ä½łè§īå¾Ĺ": 4020,
      "è£Ļ": 4021,
      "hn": 4022,
      "éł": 4023,
      "ä¸ĭéĽ¨": 4024,
      "çļĦç¾İé£Ł": 4025,
      "çĳŀ": 4026,
      "èıĮ": 4027,
      "å°½éĩı": 4028,
      "æ¯ķ": 4029,
      "çļĦåĬ¨çī©": 4030,
      "èº«ä»½": 4031,
      "æİĺ": 4032,
      "åĨ³äºİ": 4033,
      "çŁ¿": 4034,
      "åıĸåĨ³äºİ": 4035,
      "æł¹æį®ç»Ļå®ļ": 4036,
      "çļĦåŁºæľ¬": 4037,
      "è§Ĵèī²ä¿¡æģ¯": 4038,
      "æĪĳä»¬çļĦçĶŁæ´»": 4039,
      "çģ°": 4040,
      "ä¿Ŀéļľ": 4041,
      "æĭĵ": 4042,
      "ä»·åĢ¼è§Ĥ": 4043,
      "åıĳæĺİ": 4044,
      "è±ª": 4045,
      "çļĦçĶŁæ´»æĸ¹å¼ı": 4046,
      "æ¼Ĥäº®": 4047,
      "ç»ıçĲĨ": 4048,
      "ä¸ºä½ł": 4049,
      "åĽŀçŃĶè¿Ļä¸ªéĹ®é¢ĺ": 4050,
      "åĴĮåºĶçĶ¨": 4051,
      "000": 4052,
      "çļĦäº§åĵģ": 4053,
      "åĲĦåľ°": 4054,
      "åĲĽ": 4055,
      "è½¬åĮĸ": 4056,
      "åķĨåĬ¡": 4057,
      "å°ıçĮ«": 4058,
      "æĢ»çļĦæĿ¥è¯´": 4059,
      "èµ¢å¾Ĺ": 4060,
      "è¯¸": 4061,
      "èģĺ": 4062,
      "çļĦæ½": 4063,
      "çĬ¯ç½ª": 4064,
      "è¯ģæį®": 4065,
      "Ã·": 4066,
      "çº¹": 4067,
      "ä¼¯": 4068,
      "æĳĨ": 4069,
      "ç»´æĮģ": 4070,
      "æĢİæł·": 4071,
      "John": 4072,
      "è¯ķåĽ¾": 4073,
      "é²ģ": 4074,
      "ç¼ºçĤ¹": 4075,
      "æĥ³è±¡": 4076,
      "æŁ¥è¯¢": 4077,
      "åı¯ä»¥éĢīæĭ©": 4078,
      "æĿİåĽĽ": 4079,
      "ä¹ŁéľĢè¦ģ": 4080,
      "Ġå¥½çļĦ": 4081,
      "çļĦçľĭ": 4082,
      "ä¸Ģä»¶": 4083,
      "åĭĩæ°Ķ": 4084,
      "å¤§éĩıçļĦ": 4085,
      "çļĦåĲ«ä¹ī": 4086,
      "èĻİ": 4087,
      "ä»¥æĿ¥": 4088,
      "ä»Ĭå¹´": 4089,
      "æĻĴ": 4090,
      "ä»İè¿Ļç¯ĩæĸĩç«łä¸ŃæıĲåıĸåĩº": 4091,
      "æŁĶè½¯": 4092,
      "æľīæķĪçļĦ": 4093,
      "ä¼¦æķ¦": 4094,
      "åŃĹç¬¦": 4095,
      "æľªçŁ¥": 4096,
      "å§Ķ": 4097,
      "çĽĳæµĭ": 4098,
      "è®¸å¤ļäºº": 4099,
      "AIæĬĢæľ¯": 4100,
      "åı¯ä»¥æł¹æį®": 4101,
      "èİ±": 4102,
      "åĴĮæľįåĬ¡": 4103,
      "åľĪ": 4104,
      "å¿ĥåĴĮ": 4105,
      "åĪļåĪļ": 4106,
      "ä»ª": 4107,
      "ä½Ĩä»ĸ": 4108,
      "éĢĬ": 4109,
      "æĺ¯åħ³äºİ": 4110,
      "le": 4111,
      "ä¸ªæĢ§åĮĸ": 4112,
      "ä¸İåħ¶ä»ĸ": 4113,
      "æĺ¯æľĢ": 4114,
      "åį§": 4115,
      "åīª": 4116,
      "é¸£": 4117,
      "çłĶç©¶è¡¨æĺİ": 4118,
      "æĥħæĦŁåĪĨæŀĲ": 4119,
      "å¹½": 4120,
      "çļĦåıĺåĮĸ": 4121,
      "çİ©èĢį": 4122,
      "åıĤèĢĥ": 4123,
      "å¥½å¤Ħ": 4124,
      "çļĦçĸ": 4125,
      "ä¸ĵå®¶": 4126,
      "èĢħçļĦ": 4127,
      "èĢĮè¨Ģ": 4128,
      "å°ıåįİ": 4129,
      "ç¡®å®ŀ": 4130,
      "è¿Ļç¯ĩæĸĩç«łä¸Ń": 4131,
      "çĽĳçĿ£": 4132,
      "çļ®èĤ¤": 4133,
      "ä¼Ļ": 4134,
      "ä¸įè¶³": 4135,
      "çļĦæĥħåĨµä¸ĭ": 4136,
      "ce": 4137,
      "ç¢į": 4138,
      "éĻ·": 4139,
      "æ°¸è¿ľ": 4140,
      "å°±ä¼ļ": 4141,
      "èĬĿ": 4142,
      "çºłæŃ£": 4143,
      "éĤĢ": 4144,
      "è´Łè´£": 4145,
      "å§¿": 4146,
      "æĢª": 4147,
      "çļĦåħ·ä½ĵ": 4148,
      "çļĦæĶ¯æĮģ": 4149,
      "æģĭ": 4150,
      "éĩĮéĿ¢": 4151,
      "éĩĩåıĸæİªæĸ½": 4152,
      "æľīçĽĬ": 4153,
      "åĲĮåŃ¦": 4154,
      "åĴĮè°": 4155,
      "æŀĿ": 4156,
      "èħĲ": 4157,
      "è¯ģæĺİ": 4158,
      "åį°åº¦": 4159,
      "å¤§åŀĭ": 4160,
      "åĩ¡": 4161,
      "åĩºè¡Į": 4162,
      "è¯Ńåı¥": 4163,
      "è°ĥåĳ³": 4164,
      "æ¥ļ": 4165,
      "çļĦè¿ĩç¨ĭ": 4166,
      "å¹´è½»äºº": 4167,
      "çļĦæĢģ": 4168,
      "çİ©åħ·": 4169,
      "è®¿éĹ®": 4170,
      "ç®Ģçº¦": 4171,
      "çļĦé£İæł¼": 4172,
      "è°Ĭ": 4173,
      "åĽłä¸ºå®ĥä»¬": 4174,
      "äºĭæķħ": 4175,
      "æŃ»äº¡": 4176,
      "ä»¥ä¸ĭæ®µèĲ½": 4177,
      "åı¯èĥ½å¯¼èĩ´": 4178,
      "æĪĳæĥ³çŁ¥éģĵ": 4179,
      "å®ŀçĶ¨": 4180,
      "åĸľçĪ±": 4181,
      "æª¬": 4182,
      "æĽ´ä¸º": 4183,
      "å±±å³°": 4184,
      "æīĭæ®µ": 4185,
      "äº§ä¸ļ": 4186,
      "è§Ĥçľĭ": 4187,
      "çļĦæĥħç»ª": 4188,
      "åıĸå¾ĹäºĨ": 4189,
      "éĺĶ": 4190,
      "è¡«": 4191,
      "æĭĶ": 4192,
      "è¿ĻæĦıåĳ³çĿĢ": 4193,
      "æµģç¨ĭ": 4194,
      "Ġ1": 4195,
      "å°ıæĺİåĴĮ": 4196,
      "ĽçĽ¾": 4197,
      "æĳĩ": 4198,
      "łæª¬": 4199,
      "å±ı": 4200,
      "æŁ¥çľĭ": 4201,
      "çļĦæĹħæ¸¸": 4202,
      "çļĦçĬ": 4203,
      "å²©": 4204,
      "è¿ĲçĶ¨": 4205,
      "è¶³å¤ŁçļĦ": 4206,
      "ä¸Ģæ®µæĸĩæľ¬": 4207,
      "äººå£«": 4208,
      "èĴľ": 4209,
      "æ£ī": 4210,
      "åľ°ä¸Ĭ": 4211,
      "çĶ·åŃĲ": 4212,
      "ä¿Ĺ": 4213,
      "åŀĥåľ¾åĪĨç±»": 4214,
      "è¢«ç§°ä¸º": 4215,
      "æĦŁåĪ°éĿŀå¸¸": 4216,
      "èĴĤ": 4217,
      "èıľèĤ´": 4218,
      "æŃ£å¼ı": 4219,
      "åŁ¹è®Ń": 4220,
      "å¤ļæł·æĢ§": 4221,
      "æĪĳä¸į": 4222,
      "æł¹æį®ä»¥ä¸ĭæĸĩæľ¬": 4223,
      "åĭĩæķ¢": 4224,
      "ç¼ĸåĨĻä¸Ģä¸ª": 4225,
      "ç©Ĩ": 4226,
      "åĢĴåħ¥": 4227,
      "å¹´ä»£": 4228,
      "åİĺ": 4229,
      "éķ¿çļĦ": 4230,
      "çĽ¸åıį": 4231,
      "è¿Ļæ¬¡": 4232,
      "å½±çīĩ": 4233,
      "ä¸ģ": 4234,
      "åħ³éĶ®åŃĹ": 4235,
      "çļĦçĭĹ": 4236,
      "âĢĿãĢĤ</": 4237,
      "æī®æ¼Ķ": 4238,
      "ä¸»äººåħ¬": 4239,
      "çļĦçľĭæ³ķ": 4240,
      "æĬĢæľ¯åĴĮ": 4241,
      "æ²Ļæĭī": 4242,
      "åĪ©çĽĬ": 4243,
      "åľºæīĢ": 4244,
      "çĥ¹é¥ª": 4245,
      "è£ģ": 4246,
      "æĳ©": 4247,
      "æĶ¶åħ¥": 4248,
      "çĽŁ": 4249,
      "çļĦæĬķ": 4250,
      "å±ķå¼Ģ": 4251,
      "ç§Ł": 4252,
      "çļĦæ¸¸æĪı": 4253,
      "\"</": 4254,
      "äº¤äºĴ": 4255,
      "17": 4256,
      "åĪĺ": 4257,
      "æŃ£å¸¸": 4258,
      "çģµæ´»": 4259,
      "å¼ķåıĳ": 4260,
      "æĪĲåĬŁçļĦ": 4261,
      "ä¾Ŀèµĸ": 4262,
      "ä¹Łä¸į": 4263,
      "æłĩçŃ¾": 4264,
      "æģ¢": 4265,
      "ä¸Ńæľī": 4266,
      "åĮ¹": 4267,
      "å®ŀæĹ¶": 4268,
      "æ¸ħæĸ°": 4269,
      "ä¸Ģå¹´": 4270,
      "çļĦæģ": 4271,
      "å½ĵæĹ¶": 4272,
      "éĩİçĶŁ": 4273,
      "çļĦä¸ĢäºĽ": 4274,
      "æĪĲæŀľ": 4275,
      "èĢģæĿ¿": 4276,
      "èģĮä½į": 4277,
      "åĿĢ": 4278,
      "æŁ¥æī¾": 4279,
      "æĻºèĥ½æīĭæľº": 4280,
      "å¤®": 4281,
      "å¿ħè¦ģçļĦ": 4282,
      "èŃ¦å¯Ł": 4283,
      "åĴĮæ°´": 4284,
      "æµ·å¹³éĿ¢ä¸Ĭåįĩ": 4285,
      "æĺ¾èĳĹ": 4286,
      "åľ¨ä¸ŃåĽ½": 4287,
      "æİ¢éĻ©": 4288,
      "çļĦçĽ®æłĩ": 4289,
      "è¿«": 4290,
      "å°¿": 4291,
      "æ³¢çī¹": 4292,
      "éĺ¶æ®µ": 4293,
      "æĭħå¿ĥ": 4294,
      "çļĦæ¢¦": 4295,
      "äºĮæ°§åĮĸ": 4296,
      "çļĦçī¹çĤ¹": 4297,
      "ä»Ļ": 4298,
      "çĸĳéĹ®": 4299,
      "è·ĥ": 4300,
      "çļĦæ³ķ": 4301,
      "åİŁæĸĩ": 4302,
      "åºĨç¥Ŀ": 4303,
      "ä¸ªæ©ĻåŃĲ": 4304,
      "ç«¹": 4305,
      "è®¤çľŁ": 4306,
      "å¢¨": 4307,
      "ä¸įè¶ħè¿ĩ": 4308,
      "çĭ®": 4309,
      "åı¯ä»¥çĶ¨": 4310,
      "ä»İè¿Ļç¯ĩæĸĩç«łä¸ŃæıĲåıĸ": 4311,
      "æĺĵæĩĤ": 4312,
      "æĹłéĻĲ": 4313,
      "åĲĮæł·": 4314,
      "æ·±è¿ľ": 4315,
      "å·¥èīº": 4316,
      "æ³ķè§Ħ": 4317,
      "å¿ĥæĢģ": 4318,
      "çļĦä¸ĸçķĮ": 4319,
      "ä¹°äºĨ": 4320,
      "çļĦçľŁ": 4321,
      "åħ¶ä¸ŃåĮħæĭ¬": 4322,
      "è°ĵè¯Ń": 4323,
      "é¸¡èĤī": 4324,
      "ä½ĵéĩį": 4325,
      "å¯¼æ¼Ķ": 4326,
      "è¦ģçĤ¹": 4327,
      "åŁİå¸ĤçļĦ": 4328,
      "èİİ": 4329,
      "åŃ¦ç§ĳ": 4330,
      "æĬĳ": 4331,
      "å¤§å¤ļæķ°": 4332,
      "æ¶µçĽĸ": 4333,
      "å·¥ç¨ĭå¸Ī": 4334,
      "èĬĤæĹ¥": 4335,
      "åĢ¼å¾Ĺä¸Ģ": 4336,
      "åı¯ä»¥èĢĥèĻĳ": 4337,
      "è¢«è®¤ä¸ºæĺ¯": 4338,
      "æī¾åĪ°äºĨ": 4339,
      "éĩĬæĶ¾": 4340,
      "æľĢéĩįè¦ģ": 4341,
      "é²¸": 4342,
      "ä¼¦çĲĨ": 4343,
      "çļĦçĮ": 4344,
      "éĥ½åľ¨": 4345,
      "å¦Ĥæŀľä½łåĸľæ¬¢": 4346,
      "åĲĥäºĨ": 4347,
      "åĲĪçī©": 4348,
      "éĹ®é¢ĺçļĦ": 4349,
      "çŁ¥åĲį": 4350,
      "åĴĮæĶ¯æĮģ": 4351,
      "å¼Ģå¿ĥ": 4352,
      "ä¸įæĸŃåľ°": 4353,
      "ä¸Ģç³»åĪĹ": 4354,
      "ç¡®è®¤": 4355,
      "åģļå¥½": 4356,
      "å¦Ĥä½ķåľ¨": 4357,
      "æĺ¯åĲ¦æľī": 4358,
      "æıŃ": 4359,
      "çº¤ç»´": 4360,
      "éľľ": 4361,
      "åıĭè°Ĭ": 4362,
      "çļĦæĽ": 4363,
      "é¸Ń": 4364,
      "æĭľ": 4365,
      "æĥľ": 4366,
      "çļĦæ¨": 4367,
      "çĩķ": 4368,
      "æĦŁæŁĵ": 4369,
      "è´§å¸ģ": 4370,
      "å°Ĩä»¥ä¸ĭæĸĩæľ¬": 4371,
      "å°Ĩä»¥ä¸ĭåı¥åŃĲ": 4372,
      "åĽ¾åĥıè¯ĨåĪ«": 4373,
      "å¼Ł": 4374,
      "å¾Ĵ": 4375,
      "åľ¨è¿ĩåİ»": 4376,
      "å°Ĭæķ¬": 4377,
      "çĭĹçĭĹ": 4378,
      "éģµå®Ī": 4379,
      "çļĦæ¶Ī": 4380,
      "é£Łè°±": 4381,
      "å¦ĩ": 4382,
      "æŁłæª¬": 4383,
      "æķĪçİĩåĴĮ": 4384,
      "çļĦä¸»æĹ¨": 4385,
      "åĩ½æķ°": 4386,
      "å¥½çľĭ": 4387,
      "èĤł": 4388,
      "äººç±»æ´»åĬ¨": 4389,
      "è¶ĬæĿ¥è¶Ĭå¤ļ": 4390,
      "æŃĮè¯į": 4391,
      "çĽĳç®¡": 4392,
      "æĽ¿ä»£": 4393,
      "æİ¨æĸŃ": 4394,
      "æĦıè¯ĨåĪ°": 4395,
      "æ®ĸ": 4396,
      "æĲº": 4397,
      "60": 4398,
      "ä¼ļå¯¼èĩ´": 4399,
      "2021": 4400,
      "èĤĸ": 4401,
      "çļĦç¥ŀ": 4402,
      "åľ¨å®¶éĩĮ": 4403,
      "è½»è½»": 4404,
      "æµ·è¾¹": 4405,
      "æĦ¿æĦı": 4406,
      "ç»ĻäºĨ": 4407,
      "æĪĳä¹Ł": 4408,
      "çļĦæŃ£": 4409,
      "æĻ®éĢļ": 4410,
      "éĨī": 4411,
      "ä¹ĭéĹ´çļĦåħ³ç³»": 4412,
      "å·²ç»ıæĪĲä¸º": 4413,
      "æĶ¯éĵħç¬Ķ": 4414,
      "åĽŀå¿Ĩ": 4415,
      "ä½łåľ¨": 4416,
      "è¯¥åħ¬åı¸": 4417,
      "åĸľæ¬¢åĲĥ": 4418,
      "éĥ½åı¯ä»¥": 4419,
      "åĪł": 4420,
      "çļĦæĳĦ": 4421,
      "çļĦæ·±": 4422,
      "éĻ¤ä»¥": 4423,
      "èıľåįķ": 4424,
      "æĹłäºº": 4425,
      "æĿ¥å®ŀçİ°": 4426,
      "è¿Ł": 4427,
      "éĻª": 4428,
      "çļĦæ½ľ": 4429,
      "40": 4430,
      "è·¯çº¿": 4431,
      "æ´ª": 4432,
      "éģİ": 4433,
      "æııç»ĺ": 4434,
      "æĽ´æľī": 4435,
      "èģļä¼ļ": 4436,
      "æĪĲä¸Ģä¸ª": 4437,
      "äºĴçĽ¸": 4438,
      "ä¸ĢåĢĭ": 4439,
      "é¸Łç±»": 4440,
      "çļĦçĪ±æĥħ": 4441,
      "æİĴåĪĹ": 4442,
      "èĴĻ": 4443,
      "åľ°çĲĥçļĦ": 4444,
      "æĮĤ": 4445,
      "ç¤¼çī©": 4446,
      "å°ıé¸Ł": 4447,
      "æĤī": 4448,
      "éģĵè·¯": 4449,
      "åĴĮè°Ĳ": 4450,
      "äºĮæ°§åĮĸç¢³": 4451,
      "çļĦæİĴ": 4452,
      "æ¡ĥ": 4453,
      "æĽ´æĸ°": 4454,
      "ä¿ĿéĻ©": 4455,
      "æľºåĪ¶": 4456,
      "è´¸": 4457,
      "åĢį": 4458,
      "åĪĹä¸¾": 4459,
      "åĭĴ": 4460,
      "ä½łä¼ļ": 4461,
      "å¯¹åħ¶": 4462,
      "ä»ĸæĥ³": 4463,
      "ä»ĭç»įä¸Ģä¸ĭ": 4464,
      "èĭ±æĸĩ": 4465,
      "çĻ½èī²": 4466,
      "äºĭä¸ļ": 4467,
      "çļĦä¸į": 4468,
      "åį«æĺŁ": 4469,
      "å®ĹæķĻ": 4470,
      "èĬĴ": 4471,
      "è¯»ä¹¦": 4472,
      "åķĨåºĹ": 4473,
      "ä¿ĿæĮģåģ¥åº·": 4474,
      "ä¸ľäº¬": 4475,
      "è¯·çĶ¨": 4476,
      "ä»¿ä½Ľ": 4477,
      "èĥ½åĬĽåĴĮ": 4478,
      "æł¹æį®è¾ĵåħ¥": 4479,
      "æģ¢å¤į": 4480,
      "åĪĢ": 4481,
      "çİĩåĴĮ": 4482,
      "çº½çº¦å¸Ĥ": 4483,
      "ä¸Ģå¼ł": 4484,
      "æ·ĩ": 4485,
      "ä¸ĢçĽ´åľ¨": 4486,
      "\"ï¼Į": 4487,
      "è®©äººä»¬": 4488,
      "èĻļæĭŁçİ°å®ŀ": 4489,
      "çļĦæŁ": 4490,
      "éĿ¢æĸĻ": 4491,
      "çļĦé«ĺ": 4492,
      "çļĦæŃ¥": 4493,
      "çļĦå¤ĸ": 4494,
      "åĽ¾ä¹¦é¦Ĩ": 4495,
      "å°½åĬĽ": 4496,
      "åĲĮäºĭ": 4497,
      "çŃĶæ¡Īæĺ¯": 4498,
      "èĥ¸": 4499,
      "ä¼¤å®³": 4500,
      "é¢ĨåŁŁä¸Ń": 4501,
      "è¿Ĳè¡Į": 4502,
      "ç§įæ¤į": 4503,
      "æĻ®éģį": 4504,
      "å°ıæľĭåıĭ": 4505,
      "å¦Īå¦Ī": 4506,
      "æłĩå¿Ĺ": 4507,
      "æĬĵ": 4508,
      "éªĮè¯ģ": 4509,
      "è¯´è¯Ŀ": 4510,
      "çĭĤ": 4511,
      "åĵªç§į": 4512,
      "ä»İä»¥ä¸ĭ": 4513,
      "èĢĢ": 4514,
      "åıĭå¥½": 4515,
      "å£¤": 4516,
      "æľºåĻ¨åŃ¦ä¹łç®Ĺæ³ķ": 4517,
      "ä»ĸä»¬åľ¨": 4518,
      "å¾Īå¥½çļĦ": 4519,
      "çļĦåħ³ç³»": 4520,
      "æĪĳéĿŀå¸¸": 4521,
      "çĬ¹": 4522,
      "æĺ¯å¤ļå°ĳ": 4523,
      "åħīçº¿": 4524,
      "åĨ°æ·ĩ": 4525,
      "åĪ«äºº": 4526,
      "éĺĲ": 4527,
      "åĬĽåŃ¦": 4528,
      "å°ıæĺİå®¶": 4529,
      "äººå·¥æĻºèĥ½çļĦåıĳå±ķ": 4530,
      "çĶ·æĢ§": 4531,
      "æĻºèĥ½åĮĸ": 4532,
      "åľ°éľĩ": 4533,
      "åĪĽä¸ļ": 4534,
      "å°±åĥı": 4535,
      "ä¸¦": 4536,
      "åĨ°æ·ĩæ·ĭ": 4537,
      "ä¼ĺæĥł": 4538,
      "æ¯ĶèµĽä¸Ń": 4539,
      "ç¾¤ä½ĵ": 4540,
      "Tom": 4541,
      "æĺ¯ä¸į": 4542,
      "åıªè¦ģ": 4543,
      "æĸ°éĹ»æĸĩç«ł": 4544,
      "çļĦæľºä¼ļ": 4545,
      "èĥľåĪ©": 4546,
      "åħļ": 4547,
      "æħ¢æħ¢": 4548,
      "ä¾ĽåºĶ": 4549,
      "ä¸²": 4550,
      "ä½¿çĶ¨çļĦ": 4551,
      "åħ¬ä¼Ĺ": 4552,
      "çĥŃæĥħ": 4553,
      "çĶŁæĪĲæĳĺè¦ģ": 4554,
      "æ¦Ĥè¿°": 4555,
      "æĽ´é«ĺ": 4556,
      "å¼ķåĬĽ": 4557,
      "åĬłéĢŁ": 4558,
      "ä¸§": 4559,
      "æ¢¦æĥ³": 4560,
      "åįľ": 4561,
      "æĺ¯åĽłä¸º": 4562,
      "åĴĮæľĭåıĭ": 4563,
      "åĪĩæĪĲ": 4564,
      "ï¼ļ\"": 4565,
      "å®¿": 4566,
      "æĮĩçļĦæĺ¯": 4567,
      "åĪ·": 4568,
      "å®Įç¾İ": 4569,
      "å°ĺ": 4570,
      "æĺ¯å¦Ĥä½ķ": 4571,
      "æ³Ĭ": 4572,
      "å¼Ĺ": 4573,
      "è°ĥèĬĤ": 4574,
      "é£ŀæľº": 4575,
      "è®²è¿°äºĨä¸Ģä¸ª": 4576,
      "çļĦæ¯ı": 4577,
      "åĭ¤": 4578,
      "å«Į": 4579,
      "æľĢåĸľæ¬¢çļĦ": 4580,
      "åľ¨è¿ĻéĩĮ": 4581,
      "è¿Ļåıª": 4582,
      "åħ¶å®ŀ": 4583,
      "çļĦçĻ": 4584,
      "æĿĥåĪ©": 4585,
      "ä¸Ĭæĸĩ": 4586,
      "ç¨®": 4587,
      "çĽĹ": 4588,
      "çŁĽçĽ¾": 4589,
      "è¯ķè¯ķ": 4590,
      "çļĦè¯ĹæŃĮ": 4591,
      "ä¾§": 4592,
      "èº«ä½ĵåĴĮ": 4593,
      "ä¿¡ä»°": 4594,
      "çĽ®çļĦæĺ¯": 4595,
      "çļĦæ£": 4596,
      "è¿Ļæĺ¯ä¸Ģç¯ĩ": 4597,
      "24": 4598,
      "æī©å¤§": 4599,
      "çļĦç¼ĸ": 4600,
      "å¯¸": 4601,
      "ç®Ģä»ĭ": 4602,
      "ãĢĤ'": 4603,
      "æĿİåįİ": 4604,
      "åĴĮå·¥ä½ľ": 4605,
      "åĬĽäºİ": 4606,
      "æı´": 4607,
      "å¹¶å°Ĩåħ¶": 4608,
      "å§ĵåĲį": 4609,
      "æ¶Ĥ": 4610,
      "å°ĳå¹´": 4611,
      "è¿Ļå°Ĩ": 4612,
      "ä¸Ģçīĩ": 4613,
      "å¹¶å°Ĩ": 4614,
      "å¦Ĥæŀľä½łæĥ³": 4615,
      "ä¸įæĸŃåıĳå±ķ": 4616,
      "å¹¿æ³ĽåºĶçĶ¨": 4617,
      "éĩĩåıĸè¡ĮåĬ¨": 4618,
      "è¿Ļæł·çļĦ": 4619,
      "çļĦçľ¼": 4620,
      "14": 4621,
      "çļĦä½įç½®": 4622,
      "å®¶åħ·": 4623,
      "è¯ĨåĪ«åĩº": 4624,
      "çļĦè´¨éĩı": 4625,
      "ä½łå¯¹": 4626,
      "æĦıå¤§åĪ©éĿ¢": 4627,
      "é¬": 4628,
      "æ®ĭ": 4629,
      "è½¨": 4630,
      "æĵİ": 4631,
      "å¤©çĦ¶": 4632,
      "ä¸įéľĢè¦ģ": 4633,
      "å¥Ķ": 4634,
      "åĲįè¯įçŁŃè¯Ń": 4635,
      "æīĭæľ¯": 4636,
      "æľĢæĸ°çļĦ": 4637,
      "äº¤éĢļå·¥åħ·": 4638,
      "li": 4639,
      "çĤ¹ç¬¦åı·": 4640,
      "æĹģ": 4641,
      "å¯Įæľī": 4642,
      "è¿Ļæ®µæĸĩåŃĹ": 4643,
      "åĴĮå¹³": 4644,
      "å¹¶ä¸įæĺ¯": 4645,
      "åıĸä»£": 4646,
      "çīĽèĤī": 4647,
      "æĥħæĦŁåĪĨç±»": 4648,
      "ãĢĮ": 4649,
      "ä»¥ä¸ĭéĹ®é¢ĺ": 4650,
      "ä¿®æŃ£": 4651,
      "å®Ŀå®Ŀ": 4652,
      "åİŁåĪĻ": 4653,
      "æī£": 4654,
      "æĶ¾å¼ĥ": 4655,
      "æ·±åĳ¼åĲ¸": 4656,
      "æĺ¯æĪĳä»¬": 4657,
      "è´«": 4658,
      "å¯¹è±¡": 4659,
      "é»ĳæļĹ": 4660,
      "è§ĦèĮĥ": 4661,
      "æ¯«": 4662,
      "è¿ĺèĥ½": 4663,
      "NA": 4664,
      "ãĢį": 4665,
      "å°½å¿«": 4666,
      "å¹¶ç»Ļåĩº": 4667,
      "æĶ¹ä¸º": 4668,
      "è½¬æį¢ä¸º": 4669,
      "èĺ": 4670,
      "ä½łæľīä»Ģä¹Ī": 4671,
      "æıĲä¾ĽçļĦ": 4672,
      "å¯¿åĳ½": 4673,
      "åı£è¯Ń": 4674,
      "åħĶåŃĲ": 4675,
      "æĢİä¹Īæł·": 4676,
      "æĪĳå°Ĩ": 4677,
      "åıĳåĩº": 4678,
      "åºĦ": 4679,
      "åĩĨç¡®æĢ§": 4680,
      "çļĦæ°´æŀľ": 4681,
      "æĽ´å¥½åľ°çĲĨè§£": 4682,
      "å¯Ĥ": 4683,
      "ä¹Į": 4684,
      "ä¹Łå°±æĺ¯": 4685,
      "æĺ¯ä¸ª": 4686,
      "éħª": 4687,
      "æ¶ĪèĢĹ": 4688,
      "æĤ¨å¥½": 4689,
      "Ġ5": 4690,
      "æİ¥çĿĢ": 4691,
      "ä¸ĢåĪĩ": 4692,
      "çĥ¦": 4693,
      "æĹ¥å¸¸çĶŁæ´»": 4694,
      "åľºåĲĪ": 4695,
      "æĿ¥æıĲé«ĺ": 4696,
      "åģıå¥½": 4697,
      "åľ¨æŃ¤": 4698,
      "ç¥ŀç§ĺçļĦ": 4699,
      "å½ĵä»Ĭ": 4700,
      "ä¸¥æł¼": 4701,
      "å¼ķæĵİ": 4702,
      "æ¸ħåįķ": 4703,
      "ç¬¬äºĮä¸ª": 4704,
      "ç±»åŀĭçļĦ": 4705,
      "åĽ½åĨħ": 4706,
      "ä¸īç§į": 4707,
      "åĮºåĪ«": 4708,
      "ï¼ļ'": 4709,
      "æł¹æį®æīĢ": 4710,
      "å¼ºå¤§": 4711,
      "ç½ļ": 4712,
      "è¯·å¯¹": 4713,
      "çĮª": 4714,
      "æĿ¥çľĭ": 4715,
      "æııè¿°ä¸Ģä¸ĭ": 4716,
      "èĬĤå¥ı": 4717,
      "çīĪæľ¬": 4718,
      "æİ¨èįĲä¸ĢäºĽ": 4719,
      "ä¼¸": 4720,
      "åİĤ": 4721,
      "çŃīæĸ¹å¼ı": 4722,
      "åİĭåĬĽåĴĮ": 4723,
      "è´¹çĶ¨": 4724,
      "çĩĥæĸĻ": 4725,
      "æıĴ": 4726,
      "åĴĮåĪĨæŀĲ": 4727,
      "æµ¸": 4728,
      "æĪ·å¤ĸæ´»åĬ¨": 4729,
      "ä¼łéĢĴ": 4730,
      "å°¼åħĭ": 4731,
      "æĦŁåĴĮ": 4732,
      "åĲ¬åĪ°": 4733,
      "å¯¹æīĭ": 4734,
      "è¿Ļä½į": 4735,
      "èį¡": 4736,
      "çļĦæĢģåº¦": 4737,
      "åĲİçļĦ": 4738,
      "æĬµ": 4739,
      "çĶµåĬ¨": 4740,
      "èĬ±è´¹": 4741,
      "æĢģåº¦": 4742,
      "åıĺéĿ©": 4743,
      "å°¤åħ¶æĺ¯": 4744,
      "è¦ģæ³¨æĦı": 4745,
      "åŃĶ": 4746,
      "å£ģ": 4747,
      "å¹¿æ³ĽçļĦåºĶçĶ¨": 4748,
      "èĬ¬": 4749,
      "å¤±åİ»": 4750,
      "æ¨¡ä»¿": 4751,
      "è¯ĦåĪĨ": 4752,
      "çļĦåŃ¦ä¹ł": 4753,
      "åĽĽä¸ª": 4754,
      "åı¯èĥ½æĢ§": 4755,
      "æĸ°äº§åĵģ": 4756,
      "åģ·": 4757,
      "åı«åģļ": 4758,
      "é«Ķ": 4759,
      "åı¯ä»¥æĺ¯": 4760,
      "è¾ŀ": 4761,
      "æ»¤": 4762,
      "å¥½äºĨ": 4763,
      "åĮĸåĲĪçī©": 4764,
      "äºİæĺ¯": 4765,
      "ä¸ĢçĤ¹": 4766,
      "è´¯": 4767,
      "çľ¼çĿĽ": 4768,
      "13": 4769,
      "éĻ¤æŃ¤": 4770,
      "ç¢Ĺ": 4771,
      "éĶĢåĶ®é¢Ŀ": 4772,
      "æŀĦæĪĲ": 4773,
      "åİ¿": 4774,
      "å°Ĩä¸ĭéĿ¢": 4775,
      "æľīæĹ¶": 4776,
      "åĲĪåĲĮ": 4777,
      "åłµ": 4778,
      "é³": 4779,
      "äººå·¥æĻºèĥ½çļĦåºĶçĶ¨": 4780,
      "æľºåĻ¨ç¿»è¯ĳ": 4781,
      "èĪĩ": 4782,
      "æ°´åĴĮ": 4783,
      "éļıæľº": 4784,
      "é¦Ļæ¸¯": 4785,
      "é©±": 4786,
      "çļĦæĸĩåĮĸ": 4787,
      "åĶ¯ä¸Ģ": 4788,
      "åľŁå£¤": 4789,
      "æ°´ä¸Ń": 4790,
      "èĩ´åĬĽäºİ": 4791,
      "åıĳå±ķçļĦ": 4792,
      "ä¸ºä¸Ģä¸ª": 4793,
      "é¦¨": 4794,
      "ä¿¡åı·": 4795,
      "å¥¥è¿Ĳ": 4796,
      "æ¯ıæ¬¡": 4797,
      "è¯Ńæ³ķåĴĮ": 4798,
      "åĢ¾åĲĳ": 4799,
      "æĺ¯ä¸Ģé¡¹": 4800,
      "æĻ¯è§Ĥ": 4801,
      "éĤĢè¯·": 4802,
      "å®ģéĿĻ": 4803,
      "éľĢè¦ģæ³¨æĦıçļĦæĺ¯": 4804,
      "å¿ĥçģµ": 4805,
      "çļĦç¾İå¥½": 4806,
      "æĺĵäºİçĲĨè§£": 4807,
      "æĸĩä¸Ń": 4808,
      "ç»ĻæĪĳä¸Ģä¸ª": 4809,
      "å¯¹æĸĩæľ¬": 4810,
      "èĭ±éĽĦ": 4811,
      "æķ´ä½ĵ": 4812,
      "éĩįåĨĻä»¥ä¸ĭåı¥åŃĲ": 4813,
      "éĻ¤æŃ¤ä¹ĭå¤ĸ": 4814,
      "æĵħ": 4815,
      "è±¡å¾ģ": 4816,
      "èģĶåĲĪ": 4817,
      "åĴĮæķ°æį®": 4818,
      "yt": 4819,
      "æĮĳ": 4820,
      "å®ĮåĸĦ": 4821,
      "æĢİä¹ĪåĬŀ": 4822,
      "éĿŀå¸¸æľī": 4823,
      "æ¨¡æĭŁäººç±»": 4824,
      "å¦¹": 4825,
      "æĪĲç«ĭ": 4826,
      "çİ°åľ¨è¯·ä½ł": 4827,
      "èµĦæĸĻ": 4828,
      "èµĭ": 4829,
      "åı¦ä¸Ģ": 4830,
      "è®¯": 4831,
      "ãĢĤãĢĬ": 4832,
      "è¿ĻäºĽéĹ®é¢ĺ": 4833,
      "å¤±è´¥": 4834,
      "è¿Ļåº§": 4835,
      "å¾Īéļ¾": 4836,
      "æĮĸ": 4837,
      "çļĦæµģ": 4838,
      "èħ»": 4839,
      "éĸĭ": 4840,
      "å¸¦æĿ¥çļĦ": 4841,
      "å¾·åĽ½": 4842,
      "åĴĮé«ĺ": 4843,
      "ç»Ĵ": 4844,
      "æ¤ħ": 4845,
      "å¸Ń": 4846,
      "åĴĮæĬĢæľ¯": 4847,
      "é¢Ħè®¡": 4848,
      "é½Ĳ": 4849,
      "èĬĤçĽ®": 4850,
      "åĮĹæŀģ": 4851,
      "æĩī": 4852,
      "å¸½": 4853,
      "çģ«æĺŁ": 4854,
      "å½ĵä½ł": 4855,
      "ä¸¾åĬŀ": 4856,
      "æľīäºº": 4857,
      "å®īè£ħ": 4858,
      "çļĦæ¨¡": 4859,
      "å¸®æĪĳæĥ³": 4860,
      "çļĦæĹ¥": 4861,
      "çļĦç¨ĭ": 4862,
      "çĻĮçĹĩ": 4863,
      "åı¯èĥ½ä¼ļå¯¼èĩ´": 4864,
      "æ¼Ķè®²": 4865,
      "åıįæĺł": 4866,
      "ä¸¹": 4867,
      "å¾Ģå¾Ģ": 4868,
      "å¤©ä½ĵ": 4869,
      "æ´ĭèĳ±": 4870,
      "è¹Ī": 4871,
      "ç¤¾ä¼ļçļĦ": 4872,
      "éĸĵ": 4873,
      "è¯¥æĸĩç«ł": 4874,
      "èµĦéĩĳ": 4875,
      "ä¾¿æį·": 4876,
      "çļĦæĥħèĬĤ": 4877,
      "çļĦæĦŁåıĹ": 4878,
      "è¯·ç»ŃåĨĻ": 4879,
      "ä¼ļå¯¹": 4880,
      "çļĦæĬĢå·§": 4881,
      "å¹³æĸ¹": 4882,
      "éŁµ": 4883,
      "æĴŀ": 4884,
      "è¡¬": 4885,
      "æīĢè¿°": 4886,
      "çī¹åĪ«æĺ¯": 4887,
      "ython": 4888,
      "æ¯ıå¹´": 4889,
      "äººå¿ĥ": 4890,
      "ä¸Ńç«ĭ": 4891,
      "ç²¾åĩĨ": 4892,
      "è¦ĨçĽĸ": 4893,
      "ç£ģ": 4894,
      "Ŀåįľ": 4895,
      "ä¸Ĭæľī": 4896,
      "å¹¶è¿Ľè¡Į": 4897,
      "çļĦè¿ĩç¨ĭä¸Ń": 4898,
      "æĭ¼åĨĻéĶĻè¯¯": 4899,
      "æľĪçĲĥ": 4900,
      "æ¼ł": 4901,
      "åı¯ä»¥å°Ŀè¯ķ": 4902,
      "ä¼Ļä¼´": 4903,
      "åħĪè¿Ľ": 4904,
      "è¿ĺæľīåħ¶ä»ĸ": 4905,
      "éĢļå¸¸æĺ¯": 4906,
      "æľīæľº": 4907,
      "äºĨä»Ģä¹Ī": 4908,
      "çĪ¸": 4909,
      "æ¯ıäºº": 4910,
      "æĴĴ": 4911,
      "çļĦæĶ¹": 4912,
      "åº¦çļĦ": 4913,
      "åŃ¦æľ¯": 4914,
      "å®ļåĪ¶": 4915,
      "æłĩè®°": 4916,
      "ç»ĻæĪĳä¸ĢäºĽ": 4917,
      "åĩĿ": 4918,
      "åħ±äº«": 4919,
      "è¿Ļéģĵ": 4920,
      "åĩºçĶŁ": 4921,
      "ç»ĻäºĪ": 4922,
      "åı¯ä»¥å¸®åĬ©æĪĳä»¬": 4923,
      "åªļ": 4924,
      "éĿŀæ³ķ": 4925,
      "è¿Ļåľº": 4926,
      "åĿĩè¡¡": 4927,
      "Python": 4928,
      "èĿ¶": 4929,
      "éŃħåĬĽ": 4930,
      "ç§ĳæĬĢçļĦ": 4931,
      "äººå·¥æĻºèĥ½åı¯ä»¥": 4932,
      "åħ¬å¹³": 4933,
      "èķ´": 4934,
      "çªģåĩº": 4935,
      "çļĦæĳĦåħ¥": 4936,
      "ä¼ļåľ¨": 4937,
      "åģ¶": 4938,
      "éĻ¤æ³ķ": 4939,
      "ç¶ĵ": 4940,
      "éĹľ": 4941,
      "æĸĩç«łåĨħå®¹": 4942,
      "äººå·¥æĻºèĥ½åľ¨åĮ»çĸĹé¢ĨåŁŁ": 4943,
      "éĿŀæ´²": 4944,
      "è¡¨çİ°åĩº": 4945,
      "ä¸Ńå¤®": 4946,
      "æ»´": 4947,
      "æĪĳå·²ç»ı": 4948,
      "çļĦæķĪæŀľ": 4949,
      "ç¾½": 4950,
      "ç½ĳä¸Ĭ": 4951,
      "åĴĮæĥħæĦŁ": 4952,
      "åĩ¯": 4953,
      "å°ıçİĭ": 4954,
      "æļĤ": 4955,
      "æĭĤ": 4956,
      "å¤ĸå¥Ĺ": 4957,
      "æīĭè¡¨": 4958,
      "åıĹæ¬¢è¿İçļĦ": 4959,
      "å¼ķäºº": 4960,
      "ä¼łç»ŁçļĦ": 4961,
      "å°ıçļĦ": 4962,
      "è¯·åĽŀçŃĶ": 4963,
      "ç»Īäºİ": 4964,
      "è¯·ç»ŃåĨĻä»ĸä»¬çļĦå¯¹è¯ĿåĨħå®¹": 4965,
      "åĪłéĻ¤": 4966,
      "ç¼ĺ": 4967,
      "åĩłå¹´": 4968,
      "æĺ¯äººç±»": 4969,
      "çļĦä»·æł¼": 4970,
      "çļĦç¤¾äº¤": 4971,
      "æĪĳå¸ĮæľĽ": 4972,
      "ä¿ĿçķĻ": 4973,
      "çĲĥåĳĺ": 4974,
      "èįĴ": 4975,
      "æĪĳå¯¹": 4976,
      "æııè¿°ä¸Ģä¸ª": 4977,
      "éļľç¢į": 4978,
      "çļĦæ¸ħ": 4979,
      "åģ¥åº·åĴĮ": 4980,
      "çļĦé¦ĸ": 4981,
      "çļĦæ¢¦æĥ³": 4982,
      "è¿ĶåĽŀ": 4983,
      "å¸Ĥä¸Ńå¿ĥ": 4984,
      "çģ«è½¦": 4985,
      "èĪŀè¹Ī": 4986,
      "ç»ĻæĤ¨": 4987,
      "è¡ĵ": 4988,
      "çļĦä¹¦": 4989,
      "ä¸įåĪ°": 4990,
      "å¤ıæĹ¥": 4991,
      "æ¶Īæģ¯": 4992,
      "çİ¯ä¿ĿæĦıè¯Ĩ": 4993,
      "éĢĹ": 4994,
      "å±±èĦī": 4995,
      "ç©·": 4996,
      "éĥ½èĥ½": 4997,
      "AIè¯Ńè¨Ģæ¨¡åŀĭ": 4998,
      "æĪĳè¦ģ": 4999,
      "è¿Ļä¹Ī": 5000,
      "æĽ´å¥½åľ°äºĨè§£": 5001,
      "çĮ«åĴª": 5002,
      "éĩįéĩı": 5003,
      "å¿łè¯ļ": 5004,
      "GPTæ¨¡åŀĭ": 5005,
      "en": 5006,
      "æĪĳåĢĳ": 5007,
      "ç½©": 5008,
      "å¤ªç©ºæİ¢ç´¢": 5009,
      "éģĹäº§": 5010,
      "åįķä½į": 5011,
      "ä¸¤ä¸ªäºº": 5012,
      "æ³¨æĦıåĬĽ": 5013,
      "åİ»å¹´": 5014,
      "ä¸įå¥½": 5015,
      "åĪĨæĶ¯": 5016,
      "èıĩ": 5017,
      "æľºéģĩ": 5018,
      "çĥŃéĹ¨": 5019,
      "æ¼ı": 5020,
      "æĿĲè´¨": 5021,
      "ä¹Łåľ¨": 5022,
      "åĲ¸æĶ¶": 5023,
      "è°¨": 5024,
      "éĢıæĺİ": 5025,
      "åİŁå§ĭæĸĩæľ¬": 5026,
      "æµĭéĩı": 5027,
      "è´¸æĺĵ": 5028,
      "æĬķåħ¥": 5029,
      "é¥®é£Łä¹łæĥ¯": 5030,
      "å®¶æĹı": 5031,
      "æĢĸ": 5032,
      "çļĦçĬ¶": 5033,
      "æľįè£ħ": 5034,
      "éĶģ": 5035,
      "å¾ĭå¸Ī": 5036,
      "èŀįåĲĪ": 5037,
      "æĺ¯éĢļè¿ĩ": 5038,
      "çļĦå¥½å¤Ħ": 5039,
      "è¿Ļæĺ¯åĽłä¸º": 5040,
      "ä¸įåĨį": 5041,
      "åŃ©åŃĲä»¬": 5042,
      "è¯ĬæĸŃåĴĮæ²»çĸĹ": 5043,
      "æĸĩä»¶": 5044,
      "å¿ĥçĲĨåŃ¦": 5045,
      "æīĵéĢł": 5046,
      "å½¢çļĦ": 5047,
      "éĩĳå±ŀ": 5048,
      "äºļæ´²": 5049,
      "æľīéĻĲ": 5050,
      "æĶ¾æĿ¾èº«å¿ĥ": 5051,
      "ä½Ĩå®ĥ": 5052,
      "åĴĮå»ºè®®": 5053,
      "æµħ": 5054,
      "åıĮæĸ¹": 5055,
      "é¢Ī": 5056,
      "çĽ¸æ¯Ķ": 5057,
      "æľīäºĽäºº": 5058,
      "çľŁæĺ¯": 5059,
      "ä»¥æıĲé«ĺ": 5060,
      "è£Ĥ": 5061,
      "çļĦè¯Ŀé¢ĺ": 5062,
      "èĥ½å¤Łå¸®åĬ©": 5063,
      "æĦıè§ģ": 5064,
      "ä»¥ä¸ĭæĸĩç«ł": 5065,
      "æ½®æµģ": 5066,
      "åĪ¶åĵģ": 5067,
      "åĲĪå¹¶": 5068,
      "è¼": 5069,
      "ç¨į": 5070,
      "æıĲä¾ĽæĽ´": 5071,
      "å®īéĿĻ": 5072,
      "çº¢èī²çļĦ": 5073,
      "ç¨¿": 5074,
      "æ¯Ķåĸ»": 5075,
      "èĥ½ä¸įèĥ½": 5076,
      "ä¸įä»ħä»ħ": 5077,
      "ä»ģ": 5078,
      "çļĦç¾İä¸½": 5079,
      "å¹¶è§£éĩĬ": 5080,
      "æħİ": 5081,
      "ä¸Ģéģĵ": 5082,
      "å¤©æ°Ķé¢ĦæĬ¥": 5083,
      "90": 5084,
      "çĶ»éĿ¢": 5085,
      "æľĢå¤ļ": 5086,
      "èĦĨ": 5087,
      "åıįä¹īè¯į": 5088,
      "éĵº": 5089,
      "å¨ľ": 5090,
      "åĹ¯": 5091,
      "éĿ¢è¯ķ": 5092,
      "ç©¿è¶Ĭ": 5093,
      "å¤§åľ°": 5094,
      "æĸ¯åĿ¦": 5095,
      "Ġäººå·¥æĻºèĥ½": 5096,
      "æľ¬èº«": 5097,
      "åį¢": 5098,
      "æł¸å¿ĥ": 5099,
      "åĽŀåĪ°": 5100,
      "æİ¥è§¦": 5101,
      "èī³": 5102,
      "åĪ©æ¶¦": 5103,
      "çħİ": 5104,
      "åľĭ": 5105,
      "æķ°ä¸º": 5106,
      "éī": 5107,
      "å®ŀéĻħä¸Ĭ": 5108,
      "ä¸īè§Ĵ": 5109,
      "çĪ±çļĦ": 5110,
      "çĥŃéĩı": 5111,
      "ä¹Ĳè¶£": 5112,
      "é¹ħ": 5113,
      "éĺĲè¿°": 5114,
      "æĺ¯ç¾İåĽ½": 5115,
      "åħ¨åĽ½": 5116,
      "åĩĨç¡®çļĦ": 5117,
      "åĨłåĨĽ": 5118,
      "èīºæľ¯å®¶": 5119,
      "å°Ĭæķ¬çļĦ": 5120,
      "åľ°ä½į": 5121,
      "or": 5122,
      "çĶŁåĬ¨": 5123,
      "åįıä½ľ": 5124,
      "åİĨåı²ä¸Ĭ": 5125,
      "èµ·æºĲ": 5126,
      "ãĢĤâĢľ": 5127,
      "æĿ¥çļĦ": 5128,
      "å°¼äºļ": 5129,
      "åĨ²çªģ": 5130,
      "çİ»": 5131,
      "æ¶¯": 5132,
      "åįĹæŀģ": 5133,
      "æķ°æį®çļĦ": 5134,
      "ç²¾å½©": 5135,
      "èĩªçĦ¶çİ¯å¢ĥ": 5136,
      "éĿ©åĳ½": 5137,
      "éħįæĸĻ": 5138,
      "éªĳèĩªè¡Įè½¦": 5139,
      "çĶ³è¯·": 5140,
      "å¿ĥä¸Ń": 5141,
      "çī¹æĢ§": 5142,
      "çŃīæĬĢæľ¯": 5143,
      "éļ¾å¿ĺ": 5144,
      "æĸĩæ¡ĪçĶŁæĪĲ": 5145,
      "æ¬º": 5146,
      "è¯Ńä¹ī": 5147,
      "å¸¦æľī": 5148,
      "ä¸Ģå®ļçļĦ": 5149,
      "è½¬åĮĸä¸º": 5150,
      "æĿ¥å¸®åĬ©": 5151,
      "æ³ī": 5152,
      "è¡¨æł¼": 5153,
      "å¾ĪæĬ±æŃī": 5154,
      "çļĦæķĻèĤ²": 5155,
      "ä½ĵç³»": 5156,
      "å½ĵåľ°çļĦ": 5157,
      "æīĵç®Ĺ": 5158,
      "å¼Ģå±ķ": 5159,
      "å°ıåŀĭ": 5160,
      "åħ¬å¼ı": 5161,
      "ä½©": 5162,
      "æĹħç¨ĭ": 5163,
      "æ°ĳæĹı": 5164,
      "è¿Ļè¡¨æĺİ": 5165,
      "çļĦæĬķèµĦ": 5166,
      "æĹ¥å¸¸çĶŁæ´»ä¸Ń": 5167,
      "é¢Ħè®¢": 5168,
      "æĪĳæİ¨èįĲ": 5169,
      "æľīä»»ä½ķ": 5170,
      "åįĩé«ĺ": 5171,
      "ä»Ĭå¤©å¤©æ°Ķ": 5172,
      "çĸ²åĬ³": 5173,
      "åłĨ": 5174,
      "è°ľ": 5175,
      "å¾Īä¸įéĶĻ": 5176,
      "åīįæıĲ": 5177,
      "èĩªåĬ¨é©¾é©¶æ±½è½¦": 5178,
      "åľŁåľ°": 5179,
      "åĴĮäººç±»": 5180,
      "ç´§æĢ¥": 5181,
      "çĳ°": 5182,
      "æŃ¥è¡Į": 5183,
      "åľ¨æĪĳ": 5184,
      "åį³å°Ĩ": 5185,
      "å¼Ĥå¸¸": 5186,
      "éī´": 5187,
      "æĴĳ": 5188,
      "åħ¨çĲĥèĮĥåĽ´åĨħ": 5189,
      "äººéĻħ": 5190,
      "çĴĥ": 5191,
      "æľªæĿ¥åıĳå±ķ": 5192,
      "åĴĮæĹ¶éĹ´": 5193,
      "å¤¹": 5194,
      "2022": 5195,
      "æĪĳæŃ£åľ¨": 5196,
      "çº¦ä¸º": 5197,
      "åİŁåı¥": 5198,
      "ä¸Ģåı¥": 5199,
      "å¾Īæ£Ĵ": 5200,
      "èĬĤèĥ½": 5201,
      "å¯ĮåĲ«": 5202,
      "çĮľ": 5203,
      "åĽŀå¤į": 5204,
      "ä¼ļæľī": 5205,
      "éĻ¶": 5206,
      "æľĢéĩįè¦ģçļĦ": 5207,
      "è¡Ģåİĭ": 5208,
      "åĮĸçŁ³": 5209,
      "äº«çĶ¨": 5210,
      "èº«è¾¹": 5211,
      "ä¾£": 5212,
      "èµİ": 5213,
      "æĪĲåĬŁåľ°": 5214,
      "çļĦåħ³éĶ®è¯į": 5215,
      "çģµæĦŁ": 5216,
      "ä¸įå¾Ĺ": 5217,
      "åı¯ä»¥å¾ĹåĪ°": 5218,
      "æ¢°": 5219,
      "æħĪ": 5220,
      "è¡Ģç®¡": 5221,
      "ç®ĢçŁŃçļĦ": 5222,
      "ä»¥å¸®åĬ©": 5223,
      "æ¡Īä»¶": 5224,
      "åĽŀå½Ĵ": 5225,
      "ç©ĨæľĹ": 5226,
      "ä¼ĺç§ĢçļĦ": 5227,
      "çĽ¸åºĶçļĦ": 5228,
      "æľįåĬ¡åĳĺ": 5229,
      "ä»£æĽ¿": 5230,
      "æĺİåªļ": 5231,
      "æĪĳå»ºè®®": 5232,
      "è¿Ĳè¾ĵ": 5233,
      "èµ¶": 5234,
      "åŁºäºİä»¥ä¸Ĭ": 5235,
      "ä½ĵçİ°": 5236,
      "éģ¥": 5237,
      "ç©ĨæľĹçİĽ": 5238,
      "æĵħéķ¿": 5239,
      "æ´»åĬĽ": 5240,
      "çº¢æ¥¼": 5241,
      "å¤§è±¡": 5242,
      "è¿Ļä»½": 5243,
      "åĩºåıĳ": 5244,
      "åĩºçİ°äºĨ": 5245,
      "é¼»": 5246,
      "ä¸ŃåĽ½çļĦ": 5247,
      "æĻ´æľĹ": 5248,
      "æĪĳä¸įèĥ½": 5249,
      "åŃĻ": 5250,
      "500": 5251,
      "åĸľæ¬¢çļĦ": 5252,
      "çļĦæ°ĽåĽ´": 5253,
      "å¦Ĩ": 5254,
      "å¾Īå¿«": 5255,
      "æĦĪ": 5256,
      "æ³°åĿ¦": 5257,
      "ç¤ºä¾ĭ": 5258,
      "åı¯è¡Į": 5259,
      "ä¸ªæľĪ": 5260,
      "å¤±æľĽ": 5261,
      "éĢļä¿¡": 5262,
      "æİ¥ç§į": 5263,
      "éĢłæĪĲäºĨ": 5264,
      "æľīå®³": 5265,
      "å®¾è¯Ń": 5266,
      "å¤§çĨĬçĮ«": 5267,
      "çļĦç´": 5268,
      "åı¯ä»¥å¸®åĬ©ä½ł": 5269,
      "ä¸įèµ·": 5270,
      "çĽ¸åħ³ä¿¡æģ¯": 5271,
      "åı¯ä»¥ä¸º": 5272,
      "é¢ĨåŁŁçļĦåºĶçĶ¨": 5273,
      "å¯ĴåĨ·": 5274,
      "è¿Ļä¹Ł": 5275,
      "æıĲåīį": 5276,
      "éģµå¾ª": 5277,
      "å¥¥è¿Ĳä¼ļ": 5278,
      "æķ°çĻ¾": 5279,
      "çĶµè§Ĩåī§": 5280,
      "åľ°åĽ¾": 5281,
      "æ©ĺ": 5282,
      "æ¯ģ": 5283,
      "éĻĮ": 5284,
      "ç©ĨæľĹçİĽå³°": 5285,
      "åįĵ": 5286,
      "ç²¾åĬĽ": 5287,
      "æŁĲç§į": 5288,
      "æļĹç¤º": 5289,
      "çļĦçĹħ": 5290,
      "è«": 5291,
      "çļĦæ¤": 5292,
      "åıĹä¼¤": 5293,
      "åĴĮåģ¥åº·": 5294,
      "æĪĳä»¬å¿ħé¡»": 5295,
      "åĲĪæ³ķ": 5296,
      "åı¯èĥ½çļĦ": 5297,
      "åŃ¦ä¹łç¼ĸç¨ĭ": 5298,
      "å°¼åħĭåı·": 5299,
      "å¿ĺè®°": 5300,
      "ä¹ŁéĿŀå¸¸": 5301,
      "çĽĪ": 5302,
      "æķ°åŃĹåĮĸ": 5303,
      "æī«": 5304,
      "çļĦçģµ": 5305,
      "éķ¿åŁİ": 5306,
      "è´¾": 5307,
      "ä¼Ĺå¤ļ": 5308,
      "è¯Ĺäºº": 5309,
      "æĻ®åıĬ": 5310,
      "åı¯èĥ½éľĢè¦ģ": 5311,
      "çļĦæĻ¯çĤ¹": 5312,
      "æ¸ħæ¥ļ": 5313,
      "åİ¨æĪ¿": 5314,
      "æĸĳ": 5315,
      "è¯·æ±Ĥ": 5316,
      "å°¿çĹħ": 5317,
      "æ¯ıåĳ¨": 5318,
      "çĥŃçĪ±": 5319,
      "åĪ¶æĪĲ": 5320,
      "è°·æŃĮ": 5321,
      "æĸĩæ¡£": 5322,
      "åĬŀåħ¬å®¤": 5323,
      "æĪĳè¿ĺ": 5324,
      "åŃ¦èĢħ": 5325,
      "å¤·": 5326,
      "åĮºåĿĹéĵ¾æĬĢæľ¯": 5327,
      "çļĦæĢ»ç»ĵ": 5328,
      "äºĭé¡¹": 5329,
      "æľºåľº": 5330,
      "åİĨç¨ĭ": 5331,
      "80": 5332,
      "çļĦåĲįåŃĹ": 5333,
      "åħģ": 5334,
      "çŃīåĽłç´ł": 5335,
      "çļĦæĶ¶": 5336,
      "åľ¨éĤ£éĩĮ": 5337,
      "å¼ºå¤§çļĦ": 5338,
      "æ°§æ°Ķ": 5339,
      "è°¢è°¢ä½ł": 5340,
      "å¾®é£İ": 5341,
      "ä»¥ä¸ĭæĺ¯ä¸ĢäºĽ": 5342,
      "æĮĩåįĹ": 5343,
      "æĪĳæĥ³è¦ģ": 5344,
      "æ³°åĿ¦å°¼åħĭåı·": 5345,
      "é¥¼å¹²": 5346,
      "å¤§è§Ħæ¨¡": 5347,
      "å§Ĳ": 5348,
      "çİ»çĴĥ": 5349,
      "è¾Ľ": 5350,
      "çļĦçŁŃæĸĩ": 5351,
      "æĺ¯è°ģ": 5352,
      "éĩİçĶŁåĬ¨çī©": 5353,
      "åľ¨è¿Ļä¸ªåı¥åŃĲä¸Ń": 5354,
      "çº¢æ¥¼æ¢¦": 5355,
      "çĶ¨åĵģ": 5356,
      "çĲĨå¿µ": 5357,
      "éĽ¾": 5358,
      "çļĦæŃ¥éª¤": 5359,
      "çļĦåĲĮæĹ¶": 5360,
      "éĩİé¤Ĳ": 5361,
      "çļĦæĢ§èĥ½": 5362,
      "æµ´": 5363,
      "è§£çŃĶ": 5364,
      "åĸ·": 5365,
      "æĳĦæ°ı": 5366,
      "éĹ®çŃĶ": 5367,
      "å¤ļåħĥ": 5368,
      "çıłç©ĨæľĹçİĽå³°": 5369,
      "çļĦæİ¢": 5370,
      "çĶ³åħĭ": 5371,
      "æĿ°åħĭ": 5372,
      "æ³½": 5373,
      "èĤĸçĶ³åħĭ": 5374,
      "èĢģé¼ł": 5375,
      "çļĦæķĳ": 5376,
      "ä¸Ģç¯ĩåħ³äºİ": 5377,
      "è¿ľç¨ĭ": 5378,
      "ä¸ŃçļĦåħ³éĶ®è¯į": 5379,
      "åį±å®³": 5380,
      "Ġ+": 5381,
      "ä½Ĩåľ¨": 5382,
      "æ¶ĪéĻ¤": 5383,
      "è¾£æ¤Ĵ": 5384,
      "çĶµåĻ¨": 5385,
      "å·¥ä½ľæķĪçİĩ": 5386,
      "æľīçĶ¨": 5387,
      "ç»ĦæĪĲéĥ¨åĪĨ": 5388,
      "åĩºéĹ¨": 5389,
      "å¯º": 5390,
      "ä¼ı": 5391,
      "åĪ¶åº¦": 5392,
      "çļĦçī¹å¾ģ": 5393,
      "å¤Ħäºİ": 5394,
      "æĿ¥åĪ°": 5395,
      "èĥ½å¤Łåľ¨": 5396,
      "çĶ·å£«": 5397,
      "æ³Ħ": 5398,
      "åĩºåİ»": 5399,
      "br": 5400,
      "åĲİæŀľ": 5401,
      "ä¼ŀ": 5402,
      "çĸ¼": 5403,
      "åī²": 5404,
      "ä»ĸåĢĳ": 5405,
      "æķĻåŃ¦": 5406,
      "ç³ĸå°¿çĹħ": 5407,
      "ä¹Ļ": 5408,
      "å®ļä½į": 5409,
      "èħ°": 5410,
      "åĴĮè¡Įä¸º": 5411,
      "ä¸ºä¸»": 5412,
      "æ¸©é¦¨": 5413,
      "æĮĸæİĺ": 5414,
      "æĪĳæĺ¨å¤©": 5415,
      "æµĵéĥģ": 5416,
      "çļĦä½ľçĶ¨": 5417,
      "å¯¼èĩ´äºĨ": 5418,
      "ç¾İåĳ³çļĦ": 5419,
      "å®ĥåľ¨": 5420,
      "æľŁæľĽ": 5421,
      "æĶ¹æŃ£": 5422,
      "ä¸įå°ĳ": 5423,
      "éľį": 5424,
      "¡èĲĿåįľ": 5425,
      "èĥ¡èĲĿåįľ": 5426,
      "è°¢è°¢ä½łçļĦ": 5427,
      "æľĢè¿ĳçļĦ": 5428,
      "å¤ķ": 5429,
      "ç³Ĭ": 5430,
      "æĺ¨æĻļ": 5431,
      "åįıè°ĥ": 5432,
      "å¾Īå¤§çļĦ": 5433,
      "ç²¾ç¡®": 5434,
      "çĲĥéĺŁ": 5435,
      "èĢĮä¸į": 5436,
      "ä¸Ģèµ·åİ»": 5437,
      "è¿ĩäºİ": 5438,
      "å°ıæĺİçļĦ": 5439,
      "æĦŁæ¿Ģ": 5440,
      "ç»¼ä¸Ĭ": 5441,
      "äº¦": 5442,
      "åĮ»çĸĹè¡Įä¸ļ": 5443,
      "æ¢¨": 5444,
      "éĿ¢ä¸Ĭ": 5445,
      "æ°ĽåĽ´": 5446,
      "å·²çŁ¥": 5447,
      "åı¤è¯Ĺç»ŃåĨĻ": 5448,
      "æ³¥": 5449,
      "è¿Ļä¸ªäºº": 5450,
      "çłĶç©¶äººåĳĺ": 5451,
      "é¥®çĶ¨": 5452,
      "å¤º": 5453,
      "æĹłè®ºæĺ¯": 5454,
      "åįıåĬ©": 5455,
      "çľŁæŃ£çļĦ": 5456,
      "çĥĤ": 5457,
      "æ¥Ń": 5458,
      "åĸľåī§": 5459,
      "ï¼ģâĢĿ": 5460,
      "æĭĸ": 5461,
      "çĽĨ": 5462,
      "åĨ¬å¤©": 5463,
      "æĺĨ": 5464,
      "æ¡Īä¾ĭ": 5465,
      "æĹ±": 5466,
      "å¹³åĿĩåĪĨç»Ļ": 5467,
      "çİ°åľº": 5468,
      "åĲģ": 5469,
      "ä¸ĬäºĨ": 5470,
      "ç§ĭåŃ£": 5471,
      "çĭ®åŃĲ": 5472,
      "æĻ¶": 5473,
      "è®ĵ": 5474,
      "è¿ĻäºĽä¿¡æģ¯": 5475,
      "æ¦Ħ": 5476,
      "è¯·ä¸º": 5477,
      "æĦŁçŁ¥": 5478,
      "æ¿Ģåıĳ": 5479,
      "å§ĭç»Ī": 5480,
      "åĩıç¼ĵ": 5481,
      "æĪĳä»Ĭå¤©": 5482,
      "è¶ħçº§": 5483,
      "åıł": 5484,
      "ç·": 5485,
      "èĩ³åħ³éĩįè¦ģ": 5486,
      "åĬ£": 5487,
      "çĶŁæ´»çļĦ": 5488,
      "åģļæ³ķ": 5489,
      "Ħæ¦Ħ": 5490,
      "çļĦåĬĽéĩı": 5491,
      "çİ¯å¢ĥéĹ®é¢ĺ": 5492,
      "éĢīæĭ©ä¸Ģä¸ª": 5493,
      "éĤ¦": 5494,
      "ä¼ĺåħĪ": 5495,
      "æĥ§": 5496,
      "çļĦå£°éŁ³": 5497,
      "é¥±": 5498,
      "éĢĹåı·": 5499,
      "çĲĨæĥ³": 5500,
      "åĪĽéĢłåĬĽ": 5501,
      "æĪĳåİ»": 5502,
      "é¹¿": 5503,
      "çļĦèĬ±": 5504,
      "å¼¦": 5505,
      "ä½ľä¸ļ": 5506,
      "æįŁå¤±": 5507,
      "åĩºä¸Ģä¸ª": 5508,
      "ä¿ĿæĬ¤æĪĳä»¬çļĦ": 5509,
      "æ§": 5510,
      "å·¥ä½ľåĴĮ": 5511,
      "ä¸ĵæ³¨äºİ": 5512,
      "âĦ": 5513,
      "æĸĩç«łä¸ŃæıĲåĪ°": 5514,
      "ä¸įå¤Ł": 5515,
      "æŁľ": 5516,
      "åıĻ": 5517,
      "ä¹°äºĨä¸Ģ": 5518,
      "åįİçĽĽ": 5519,
      "å¯ĵ": 5520,
      "æĥħå¢ĥ": 5521,
      "çī©èģĶç½ĳ": 5522,
      "å¥¶éħª": 5523,
      "æĿ¨": 5524,
      "åļ": 5525,
      "æ»ļ": 5526,
      "è®¾è®¡ä¸Ģä¸ª": 5527,
      "å®¶åĽŃ": 5528,
      "æī©å±ķ": 5529,
      "åı¤åħ¸": 5530,
      "è¿ĲåĬ¨åĳĺ": 5531,
      "åĬłçĥŃ": 5532,
      "åĩºèī²çļĦ": 5533,
      "ä¹ĭæĹħ": 5534,
      "ä¸įèī¯": 5535,
      "æĶĢ": 5536,
      "åıĹåĪ°äºĨ": 5537,
      "æĻļé¤Ĳ": 5538,
      "éĢļè¿ĩå¯¹": 5539,
      "âĢ¦âĢ¦": 5540,
      "èģĮåľº": 5541,
      "èĤīç±»": 5542,
      "ç§ĳåŃ¦å®¶ä»¬": 5543,
      "åįİçĽĽé¡¿": 5544,
      "éªĹ": 5545,
      "æķĻå¸Ī": 5546,
      "ç®ĢåĮĸ": 5547,
      "çĿ¡è§ī": 5548,
      "å¦»": 5549,
      "çļĦçĮ«": 5550,
      "éĢĨ": 5551,
      "éĶĻåĪ«": 5552,
      "ä¸įç¡®å®ļ": 5553,
      "å¤įæĿĤçļĦ": 5554,
      "çıįæĥľ": 5555,
      "éĶĻåĪ«åŃĹ": 5556,
      "è¿Ļä¸ªæķħäºĭ": 5557,
      "æĸ°æĬĢæľ¯": 5558,
      "è´¢å¯Į": 5559,
      "æĺ¯ä¸Ģå®¶": 5560,
      "åĩºçļĦ": 5561,
      "éĻĮçĶŁ": 5562,
      "çĩ¥": 5563,
      "âĦĥ": 5564,
      "å°ĸ": 5565,
      "ç»Ļäºº": 5566,
      "çĭ¼": 5567,
      "æĸľ": 5568,
      "çĶ¨éĢĶ": 5569,
      "çĲĨçĶ±": 5570,
      "çĽ¸å½ĵ": 5571,
      "é¡Į": 5572,
      "ä¸ĭçļĦ": 5573,
      "è¯·æł¹æį®": 5574,
      "ç«Ł": 5575,
      "æ¼«æŃ¥": 5576,
      "åĿĲåľ¨": 5577,
      "ä»ĸä»¬ä¹ĭéĹ´": 5578,
      "åĭĥ": 5579,
      "Ġ4": 5580,
      "éŃĤ": 5581,
      "æĶ¹åıĺäºĨ": 5582,
      "è®°å¾Ĺ": 5583,
      "ç¾İæĻ¯": 5584,
      "å±ıå¹ķ": 5585,
      "æĸ°éĹ»æłĩé¢ĺ": 5586,
      "å¼ºåº¦": 5587,
      "èŃ¦æĸ¹": 5588,
      "æķĮ": 5589,
      "è¿Ī": 5590,
      "æĺİäº®": 5591,
      "åı¯ä»¥çĶ¨äºİ": 5592,
      "å¾Īå¤ļäºº": 5593,
      "ä¸¤äºº": 5594,
      "æģĲæĢĸ": 5595,
      "éĹ»åĲį": 5596,
      "æııåĨĻ": 5597,
      "ä»¥åħ¶": 5598,
      "ä¸ĸçķĮåĲĦåľ°": 5599,
      "ä¸įåŃĺåľ¨": 5600,
      "it": 5601,
      "çİ°ä»£ç¤¾ä¼ļ": 5602,
      "ĠÃ·": 5603,
      "å¦Ĥä½ķåĪ¶ä½ľ": 5604,
      "åıĤæķ°": 5605,
      "åĲ¬éŁ³ä¹Ĳ": 5606,
      "æĺİçĻ½äºĨ": 5607,
      "æ³ª": 5608,
      "ĸæģ¯": 5609,
      "ä¿Ħ": 5610,
      "åģıè§ģ": 5611,
      "æľīæ°§": 5612,
      "è³ĩ": 5613,
      "æĸĩæľ¬è¿Ľè¡Į": 5614,
      "åľ°åĲį": 5615,
      "çļĦçĭ¬": 5616,
      "çļĦç¼ĸç¨ĭ": 5617,
      "å£³": 5618,
      "éĢļå¸¸ä¼ļ": 5619,
      "èĨľ": 5620,
      "åĲĦä¸ªé¢ĨåŁŁ": 5621,
      "æ¡Ĩ": 5622,
      "èħ¾": 5623,
      "å±ħä½ı": 5624,
      "å¼ķå¯¼": 5625,
      "æ²Ļåıĳ": 5626,
      "çļĦæ¡": 5627,
      "äººæĢ§": 5628,
      "åĴĮçĲĨè§£": 5629,
      "æıĲé«ĺäºĨ": 5630,
      "èĸ¯": 5631,
      "éĶĻè¿ĩ": 5632,
      "å·²æĪĲä¸º": 5633,
      "æł¹æį®èĩªå·±çļĦ": 5634,
      "æ£ĭ": 5635,
      "çŃĽ": 5636,
      "å»ºè®®åĲĹ": 5637,
      "åİŁåŃĲ": 5638,
      "åł´": 5639,
      "é£İæļ´": 5640,
      "æĿī": 5641,
      "çĭĹçļĦ": 5642,
      "è¡Įé©¶": 5643,
      "èī°": 5644,
      "çİ«": 5645,
      "åĳ¼åĲģ": 5646,
      "ãĢĤ\"</": 5647,
      "çļĦæ²ŁéĢļ": 5648,
      "çļĦåĳ³éģĵ": 5649,
      "æ¶¨": 5650,
      "å¹²åĩĢ": 5651,
      "å°ĩ": 5652,
      "è°ĭ": 5653,
      "äºļé©¬": 5654,
      "çĤİçĥŃ": 5655,
      "ç¢ĳ": 5656,
      "å¾Īé«ĺåħ´": 5657,
      "è¡¨è¿°": 5658,
      "åĴĮä¸ªäºº": 5659,
      "å¹¿æ³ĽçļĦ": 5660,
      "åºĻ": 5661,
      "ç²®": 5662,
      "èĬĿå£«": 5663,
      "å¸¦çĿĢ": 5664,
      "åħ³éĹŃ": 5665,
      "çŃīå¤ļä¸ª": 5666,
      "æĽ´æĶ¹": 5667,
      "æİ¨è¿Ľ": 5668,
      "æŁ¿": 5669,
      "ä»İä¸Ń": 5670,
      "æĭĽèģĺ": 5671,
      "æ¯ķä¸ļ": 5672,
      "æĹ¥çĽĬ": 5673,
      "æ¿ĢçĥĪ": 5674,
      "æķ°æį®åĪĨæŀĲ": 5675,
      "æ¸©å®¤æ°Ķä½ĵæİĴæĶ¾": 5676,
      "æĪ¿å±ĭ": 5677,
      "è¿ĻäºĽéĥ½æĺ¯": 5678,
      "æĹ©æľŁ": 5679,
      "çļĦæ²Ļ": 5680,
      "ä½Ĩä¸į": 5681,
      "æĮ¯": 5682,
      "æĸĩè¨Ģ": 5683,
      "æľīæĦıä¹ī": 5684,
      "çļĦæĻ®": 5685,
      "ä½łæĺ¯": 5686,
      "ä¼Ĳ": 5687,
      "èĥľåľ°": 5688,
      "____": 5689,
      "å±Ĥæ¬¡": 5690,
      "ä¸Ģèĩ´": 5691,
      "èĺĳ": 5692,
      "åħģè®¸": 5693,
      "éĩıåŃĲåĬĽåŃ¦": 5694,
      "åĪĳ": 5695,
      "éĻªä¼´": 5696,
      "å®¢æľį": 5697,
      "è¿Ļæ®µè¯Ŀ": 5698,
      "æĪĳä»¬åľ¨": 5699,
      "æ¿ĢåĬ±": 5700,
      "çīĽä»Ķ": 5701,
      "çļĦçĬ¶æĢģ": 5702,
      "æĺĤ": 5703,
      "å¤§å¤§": 5704,
      "å©´": 5705,
      "æīİ": 5706,
      "çļĦä¾ĭåŃĲ": 5707,
      "æľĪäº®": 5708,
      "èĭ¹æŀľåħ¬åı¸": 5709,
      "ç¿ħ": 5710,
      "äºļé©¬éĢĬ": 5711,
      "at": 5712,
      "æĺ¯ä¸ĸçķĮä¸ĬæľĢ": 5713,
      "ç¥ĸ": 5714,
      "æĹ©æĻ¨": 5715,
      "æ´Ĵ": 5716,
      "æĥĳ": 5717,
      "ï¼ħ": 5718,
      "äººå·¥æĻºèĥ½æĬĢæľ¯åľ¨": 5719,
      "å¾Į": 5720,
      "çļĦæķ°åŃĹ": 5721,
      "æĺ¾å¾Ĺ": 5722,
      "å®īåħ¨åĴĮ": 5723,
      "åľ°çĲĨ": 5724,
      "æºª": 5725,
      "æľīæĹ¶åĢĻ": 5726,
      "é«ĺè´¨éĩı": 5727,
      "èĺĳèıĩ": 5728,
      "å»ºçŃĳçī©": 5729,
      "åĲĳéĩı": 5730,
      "èĥĥ": 5731,
      "åıĳéĢģ": 5732,
      "åŀĤ": 5733,
      "æĪĺæĸĹ": 5734,
      "ä¸ĢäºĽäºº": 5735,
      "æĸĩè¨Ģæĸĩ": 5736,
      "ä¿Ŀæļĸ": 5737,
      "åľ¨åĵªéĩĮ": 5738,
      "ä½Ĩä¹Ł": 5739,
      "æĨ": 5740,
      "æĢ»ä½ĵ": 5741,
      "é£İåħī": 5742,
      "ç¿Ķ": 5743,
      "çļĦå½¢å¼ı": 5744,
      "è¯Ńå¢ĥ": 5745,
      "ä¿®å¤į": 5746,
      "æ¾³": 5747,
      "åģ¥èº«æĪ¿": 5748,
      "éĿ¢ä¸´çĿĢ": 5749,
      "è¯¥åı¥åŃĲ": 5750,
      "æ©Ħæ¦Ħ": 5751,
      "çŃīäºİ": 5752,
      "å¹¶è¾ĵåĩº": 5753,
      "æķ°æį®åĴĮ": 5754,
      "çļĦæķĳèµİ": 5755,
      "æĬĢæľ¯çļĦåıĳå±ķ": 5756,
      "å¸ĤåľºèĲ¥éĶĢ": 5757,
      "æŀģç«¯å¤©æ°Ķ": 5758,
      "åľ¨ç»Ļå®ļçļĦ": 5759,
      "å²ģçļĦ": 5760,
      "é½¿": 5761,
      "èĵĿèī²çļĦ": 5762,
      "çİ«çĳ°": 5763,
      "æĪĳä»¬ä¼ļ": 5764,
      "çļĦæŃĮæĽ²": 5765,
      "å¤ĩåıĹ": 5766,
      "åĳĪçİ°åĩº": 5767,
      "èĿ´": 5768,
      "åĽ¾æ¡Ī": 5769,
      "æķħäºĭæĥħèĬĤ": 5770,
      "èĿ´èĿ¶": 5771,
      "æĶ¿æ²»": 5772,
      "è®©è®¡ç®Ĺæľº": 5773,
      "æĪĳä»¬åı¯ä»¥çĶ¨": 5774,
      "åĩºçīĪ": 5775,
      "å²Ĺ": 5776,
      "åĴĮçİ¯å¢ĥ": 5777,
      "æĪĺçķ¥": 5778,
      "äººå·¥æĻºèĥ½åĴĮ": 5779,
      "éĢļçŁ¥": 5780,
      "çļĦåľºæĻ¯": 5781,
      "æł¹æį®æłĩé¢ĺ": 5782,
      "ç¢³æİĴæĶ¾": 5783,
      "äºīè®®": 5784,
      "éĤ»": 5785,
      "åĪĨåĪ«æĺ¯": 5786,
      "ä¹Łèĥ½": 5787,
      "\"ãĢĤ": 5788,
      "ç«ĭåį³": 5789,
      "ç»ıèĲ¥": 5790,
      "è®¾å®ļ": 5791,
      "çļĦåĲįç§°": 5792,
      "çĪ¶æ¯į": 5793,
      "åįıè®®": 5794,
      "éĺ¿çĶĺ": 5795,
      "å¿«éĢŁåıĳå±ķ": 5796,
      "çĺ¦": 5797,
      "ç»¼ä¸ĬæīĢè¿°": 5798,
      "ç»³": 5799,
      "çĭ±": 5800,
      "åıĳè¡¨": 5801,
      "è¤": 5802,
      "åĲįåı«": 5803,
      "åºŁå¼ĥ": 5804,
      "æıŃç¤º": 5805,
      "ç§Ĵ": 5806,
      "èĥĸ": 5807,
      "éĶħä¸Ń": 5808,
      "å»ºéĢł": 5809,
      "ä¸Ģæ®µå¯¹è¯Ŀ": 5810,
      "ä¸ªä½ĵ": 5811,
      "æ¢ģ": 5812,
      "çĤī": 5813,
      "çļĦåĴĸåķ¡": 5814,
      "æ°¢": 5815,
      "æķ°æį®ä¸Ń": 5816,
      "åıĳçİ°äºĨ": 5817,
      "å¼ºåĮĸ": 5818,
      "éĢĶå¾Ħ": 5819,
      "ä½Ĩæĺ¯æĪĳ": 5820,
      "çļĦæĬ¥": 5821,
      "æĪĸç¼º": 5822,
      "å¤ªå¤ļ": 5823,
      "å¥½åĥı": 5824,
      "ç´łé£Ł": 5825,
      "åĲİçļĦåı¥åŃĲ": 5826,
      "å®ŀä½ĵè¯ĨåĪ«": 5827,
      "ç§ĳå¹»å°ıè¯´": 5828,
      "æĪª": 5829,
      "èĤĸçĶ³åħĭçļĦæķĳèµİ": 5830,
      "ä¸Ģåħ±": 5831,
      "æĪĲçĨŁ": 5832,
      "çŁ¶": 5833,
      "çļĦæ°ĶåĢĻ": 5834,
      "æĽ¿æį¢ä¸º": 5835,
      "æĽ´æŃ£": 5836,
      "æĭĴ": 5837,
      "æĴ°åĨĻ": 5838,
      "æĪĳåĴĮ": 5839,
      "ä¼ĺç¾İ": 5840,
      "å½»": 5841,
      "çĶµåŃĲåķĨåĬ¡": 5842,
      "å¹¼": 5843,
      "å¾¡": 5844,
      "æ²ĥ": 5845,
      "æ©Ł": 5846,
      "çİ¯ä¿ĿçļĦ": 5847,
      "çļĦæķ°åŃ¦": 5848,
      "èĥ¶": 5849,
      "åĴĮç®¡çĲĨ": 5850,
      "èħĬ": 5851,
      "ç»ĻæĪĳæİ¨èįĲ": 5852,
      "åĬłå·¥": 5853,
      "æĵ¦": 5854,
      "æĦıå¤ĸ": 5855,
      "åľ°åĿĢ": 5856,
      "å¤±ä¸ļ": 5857,
      "è±ĨèħĲ": 5858,
      "éŀĭåŃĲ": 5859,
      "çĶ¢": 5860,
      "å½¢æĢģ": 5861,
      "éĽķ": 5862,
      "çļĦåħ³éĶ®ä¿¡æģ¯": 5863,
      "å¼ķèµ·äºĨ": 5864,
      "æĳĦæ°ıåº¦": 5865,
      "äºĳè®¡ç®Ĺ": 5866,
      "ä¸Ģä¸ĭè¿Ļç¯ĩæĸĩç«ł": 5867,
      "æĸ°åĨł": 5868,
      "è¾ĥä¸º": 5869,
      "äººåĴĮ": 5870,
      "éĿŀå¸¸éĢĤåĲĪ": 5871,
      "å®¶éĩĮ": 5872,
      "æĸĩèīº": 5873,
      "è®©äººæĦŁåĪ°": 5874,
      "äººæķ°": 5875,
      "åŀ«": 5876,
      "æĪĸæĺ¯": 5877,
      "çī¹å®ļçļĦ": 5878,
      "æĦģ": 5879,
      "éĢıæ°Ķ": 5880,
      "è¯·ä»İ": 5881,
      "è¯·ä¸ºæĪĳ": 5882,
      "çĶµå½±åĲįç§°": 5883,
      "çĽĸèĮ¨": 5884,
      "åıĺéĩı": 5885,
      "çļĦä¸įåĲĮ": 5886,
      "å¿ĥèĦıçĹħ": 5887,
      "ob": 5888,
      "åıĺå¾Ĺè¶ĬæĿ¥è¶Ĭ": 5889,
      "çļĦæİĴæĶ¾": 5890,
      "æģ°": 5891,
      "çĥ¤ç®±": 5892,
      "éĢĤçĶ¨äºİ": 5893,
      "èħ¹": 5894,
      "åŁºäºİä»¥ä¸ĭ": 5895,
      "å§ľ": 5896,
      "èµ°äºĨ": 5897,
      "çļĦæĶ¿": 5898,
      "é«ĺçļĦå±±å³°": 5899,
      "å°ıæĺİåĴĮå°ıçº¢": 5900,
      "èĻ¾": 5901,
      "åı¯ä»¥ä»İ": 5902,
      "æİ¥è¿ĳ": 5903,
      "æĸ°æ¬¾": 5904,
      "æĪĲä¸ºä¸Ģä¸ª": 5905,
      "199": 5906,
      "ä¼ģä¸ļå®¶": 5907,
      "--": 5908,
      "åŁºäºİä»¥ä¸Ĭè¿Ļæ®µæĸĩæľ¬": 5909,
      "æ¯ıä¸ªäººéĥ½åºĶè¯¥": 5910,
      "ä¹ĭä¸Ń": 5911,
      "éĶ»çĤ¼èº«ä½ĵ": 5912,
      "çļĦè¡¨çİ°": 5913,
      "åĿļå®ļ": 5914,
      "è¿Ļæĺ¯ä¸Ģéĥ¨": 5915,
      "æķ°æį®è¿Ľè¡Į": 5916,
      "æ²¡æľīä»»ä½ķ": 5917,
      "æº¯": 5918,
      "åĮ»åŃ¦å½±åĥı": 5919,
      "ä¸ĭåĳ¨": 5920,
      "åĩıå°ĳä½¿çĶ¨": 5921,
      "åĩıèĤ¥": 5922,
      "çļĦä¸ľè¥¿": 5923,
      "äººä»¬å¯¹": 5924,
      "åĩłç§į": 5925,
      "éĺ³åħīæĺİåªļ": 5926,
      "çħ§é¡¾": 5927,
      "çļĦæłĳ": 5928,
      "éĶĻè¯¯è¿Ľè¡Į": 5929,
      "çĶľçĤ¹": 5930,
      "Ġä½ł": 5931,
      "çļĦæ¤į": 5932,
      "å¿ĹæĦ¿": 5933,
      "åĽºå®ļ": 5934,
      "çļĦä¸»è¦ģè§ĤçĤ¹æĺ¯": 5935,
      "åįļå®¢": 5936,
      "éŁ§": 5937,
      "ç®ĢåİĨ": 5938,
      "æ·±è¿ľçļĦå½±åĵį": 5939,
      "ä¸įåı¯æĪĸç¼º": 5940,
      "å¦ĤæŀľæĪĳä»¬": 5941,
      "è¢«è§Ĩä¸º": 5942,
      "çļĦæ³¨": 5943,
      "åħ´è¶£çĪ±å¥½": 5944,
      "è¿ĳæľŁ": 5945,
      "è¯¦ç»ĨçļĦ": 5946,
      "åĴĮç»ıæµİ": 5947,
      "åĳ¨æľŁ": 5948,
      "æĮĩä»¤": 5949,
      "åĨħçļĦ": 5950,
      "ç»Ļå®ļä¸Ģç¯ĩæĸĩç«ł": 5951,
      "ç¾İå¦Ļ": 5952,
      "è¸ı": 5953,
      "çĶŁæĢģçİ¯å¢ĥ": 5954,
      "ä¹Łå°Ĩ": 5955,
      "åĴĮåŃ¦ä¹ł": 5956,
      "çļĦäººçī©": 5957,
      "å¡ĳæĸĻè¢ĭ": 5958,
      "æĢ§æł¼": 5959,
      "èĶ¬èıľåĴĮ": 5960,
      "ðŁ": 5961,
      "çļĦæľĢä½³": 5962,
      "è¡¥åħħ": 5963,
      "çªģçł´": 5964,
      "æĿ¥åĩıå°ĳ": 5965,
      "åħ½": 5966,
      "è¯·å¸®æĪĳ": 5967,
      "è¯Ī": 5968,
      "åľ¨åħ¬åĽŃéĩĮ": 5969,
      "åıĸæ¶Ī": 5970,
      "èªīä¸º": 5971,
      "æľ¬è´¨": 5972,
      "åĪĽéĢłä¸Ģä¸ª": 5973,
      "èĥ¡æ¤Ĵ": 5974,
      "èĢĥèĻĳåĪ°": 5975,
      "ä½łèĥ½åĳĬè¯īæĪĳ": 5976,
      "åİĺç±³": 5977,
      "å¾®ç¬ĳ": 5978,
      "ç®¡çĲĨåĴĮ": 5979,
      "åĮħå®¹": 5980,
      "é¸ŁåĦ¿": 5981,
      "ç³Ł": 5982,
      "ä»¥åĲİ": 5983,
      "è§Ĵèī²ä»ĭç»į": 5984,
      "çļĦç¤¼": 5985,
      "ç¬¬ä¸Ģæ¬¡": 5986,
      "åĴĮæĬĢèĥ½": 5987,
      "èĨĢ": 5988,
      "çĶµå½±è¯Ħè®º": 5989,
      "ç§ĳæĬĢåħ¬åı¸": 5990,
      "åľŁè±Ĩ": 5991,
      "ä»¥åīį": 5992,
      "å¤ļæ¬¡": 5993,
      "çļĦæ³ķå¾ĭ": 5994,
      "å¥³åŃĲ": 5995,
      "åĬłå¯Ĩ": 5996,
      "çļĦæ¸©åº¦": 5997,
      "åĩłä¹İ": 5998,
      "åı¯ä»¥æıĲä¾Ľ": 5999,
      "æĤłä¹ħ": 6000,
      "çī©æµģ": 6001,
      "æĿīçŁ¶": 6002,
      "éĻĪè¿°åı¥": 6003,
      "æľ¨æĺŁ": 6004,
      "çį": 6005,
      "çļĦåŃ£èĬĤ": 6006,
      "åīĳ": 6007,
      "èĥĨ": 6008,
      "å¯¹å¾ħ": 6009,
      "å¨ģå¤·": 6010,
      "è¿Ļä¸ªè¯į": 6011,
      "èĪį": 6012,
      "è¾ĥé«ĺ": 6013,
      "å¤ıå¨ģå¤·": 6014,
      "åı¯ä»¥å¸®åĬ©åĮ»çĶŁ": 6015,
      "ä¼į": 6016,
      "æ¡ĮåŃĲ": 6017,
      "çļĦæµ·æ»©": 6018,
      "å®½æĿ¾": 6019,
      "ä»Ķç»Ĩ": 6020,
      "ä¼ĺéĽħ": 6021,
      "çļĦç¨ĭåºı": 6022,
      "ç»ŃåĨĻåı¤è¯Ĺ": 6023,
      "é©¬æĭī": 6024,
      "å»ºç«ĭä¸Ģä¸ª": 6025,
      "çļĦä»£è¡¨": 6026,
      "çļĦæīĭæľº": 6027,
      "å¸ĿåĽ½": 6028,
      "éľĢè¦ģè¿Ľè¡Į": 6029,
      "æľ¯è¯Ń": 6030,
      "å¹¶ä½¿çĶ¨": 6031,
      "æĪ¿åŃĲ": 6032,
      "éĴ¢çĲ´": 6033,
      "çİĭæĺŁ": 6034,
      "ä¸Ģå°ģ": 6035,
      "ç§ĺå¯Ĩ": 6036,
      "çļĦç¬ĳ": 6037,
      "åĿļæŀľ": 6038,
      "éĥ½å¾Ī": 6039,
      "åķı": 6040,
      "å¤ļå½©": 6041,
      "å¹²æī°": 6042,
      "ä½łåı¯ä»¥å°Ŀè¯ķ": 6043,
      "å·¾": 6044,
      "åĴĮæµ·": 6045,
      "çļĦå¸®åĬ©": 6046,
      "ä¸ºæĪĳä»¬": 6047,
      "ä¸ĭä¸Ģä¸ª": 6048,
      "æ¯ıä¸Ģä¸ª": 6049,
      "åĬłåī§": 6050,
      "å¤ĸè§Ĥ": 6051,
      "åĴĮèĶ¬èıľ": 6052,
      "å®³æĢķ": 6053,
      "å¹½é»ĺ": 6054,
      "ä¸Ģæ¬¡æĢ§": 6055,
      "çīĩæ®µ": 6056,
      "åĻª": 6057,
      "åıĸåĩº": 6058,
      "æ¸ł": 6059,
      "æĭĵå±ķ": 6060,
      "å«Įçĸĳ": 6061,
      "æĹħæ¸¸æĻ¯çĤ¹": 6062,
      "åĮħåĲ«äºĨ": 6063,
      "éĩįè¦ģçļĦä½ľçĶ¨": 6064,
      "ä¸įéĶĻçļĦéĢīæĭ©": 6065,
      "åĩıåİ»": 6066,
      "åİŁæĿ¥": 6067,
      "ç¿ł": 6068,
      "åī©ä½Ļ": 6069,
      "å¤ļå¹´": 6070,
      "åĳĢ": 6071,
      "è¿ĻäºĽæĬĢæľ¯": 6072,
      "èĪªç©º": 6073,
      "å½ĵæĪĳ": 6074,
      "æ¯ıä¸ªäººçļĦ": 6075,
      "åĸĦèī¯": 6076,
      "çĸı": 6077,
      "æ¡¶": 6078,
      "ä¸įçĶ¨": 6079,
      "ä¸»åĬ¨": 6080,
      "æ¯Ķäºļ": 6081,
      "æ¯Ķå¦Ĥè¯´": 6082,
      "æĢ§è´¨": 6083,
      "åı¯è¯»": 6084,
      "ä¿ĿæĮģèº«ä½ĵåģ¥åº·": 6085,
      "åĺ´": 6086,
      "çĶ¨æĪ·çļĦ": 6087,
      "å¹¿éĺĶ": 6088,
      "å¯Ĩåº¦": 6089,
      "èĤ©": 6090,
      "æĮĩæłĩ": 6091,
      "åľ°éĵģ": 6092,
      "æĺŁæĺŁ": 6093,
      "è¿ģ": 6094,
      "å½ĵæĪĳä»¬": 6095,
      "ç»Ĩèħ»": 6096,
      "åĮĹäº¬å¸Ĥ": 6097,
      "åħ¨éĥ¨": 6098,
      "è¿Ŀåıį": 6099,
      "æľ¬å°ıè¯´": 6100,
      "çİ°çĬ¶": 6101,
      "å±ķçİ°äºĨ": 6102,
      "å¯Ħ": 6103,
      "è®©å®ĥ": 6104,
      "æĬĳéĥģ": 6105,
      "çļĦç©ºæ°Ķ": 6106,
      "ç»µ": 6107,
      "åĨ°å·Ŀ": 6108,
      "éļĨ": 6109,
      "Ġ(": 6110,
      "oo": 6111,
      "éģĹä¼ł": 6112,
      "æĮº": 6113,
      "å¤§æĪĺ": 6114,
      "åĩĨå¤ĩå¥½": 6115,
      "é¢ĳçİĩ": 6116,
      "ä¸Ĭæĺł": 6117,
      "ç¥ŀå¥ĩ": 6118,
      "æľīæ°§è¿ĲåĬ¨": 6119,
      "çļĦç¡": 6120,
      "æĢİä¹Īåģļ": 6121,
      "çļĦçł´": 6122,
      "ä»Ĭå¤©çļĦå¤©æ°Ķ": 6123,
      "è¿Ļä¸¤": 6124,
      "æĭħä»»": 6125,
      "æ¸´": 6126,
      "çĸ¾çĹħçļĦ": 6127,
      "çļĦæĢĿèĢĥ": 6128,
      "å§Ĩæĸ¯": 6129,
      "å®īåħ¨æĢ§": 6130,
      "åĪ¸": 6131,
      "ĠAI": 6132,
      "ä¸ĸçķĮä¸Ĭ": 6133,
      "èĮ«": 6134,
      "çļĦæĢĿç»´": 6135,
      "è¿ĺè¦ģ": 6136,
      "çĽ¸çŃī": 6137,
      "è¯¦ç»ĨåĽŀçŃĶ": 6138,
      "åŀĥåľ¾éĤ®ä»¶": 6139,
      "å±ķç¤ºäºĨ": 6140,
      "åĨĮ": 6141,
      "ä»£è°¢": 6142,
      "æ´ĽæĿīçŁ¶": 6143,
      "ç½²": 6144,
      "çļĦéĢŁåº¦": 6145,
      "Ja": 6146,
      "æ¶Į": 6147,
      "çĲ³": 6148,
      "çļĦæ°Ķæģ¯": 6149,
      "æĸĩæľ¬ä¸ŃçļĦåħ³éĶ®è¯į": 6150,
      "éĢīæĭ©éĢĤåĲĪ": 6151,
      "è¡°": 6152,
      "æĤ²ä¼¤": 6153,
      "æģĴæĺŁ": 6154,
      "æłĳæľ¨": 6155,
      "èı²å°Ķ": 6156,
      "æĹĹ": 6157,
      "è¯·æĢ»ç»ĵ": 6158,
      "éĹ®é¢ĺåĴĮ": 6159,
      "ç´łè´¨": 6160,
      "çļĦåħī": 6161,
      "å¿į": 6162,
      "çĨŁæĤī": 6163,
      "è¢«èªīä¸º": 6164,
      "éŁ¿": 6165,
      "ä¹ĺåĿĲ": 6166,
      "å©ļç¤¼": 6167,
      "ç¿Ĵ": 6168,
      "å®ļå¾ĭ": 6169,
      "Ġä½¿çĶ¨": 6170,
      "è®¤åı¯": 6171,
      "åį±æľº": 6172,
      "çļĦä¸Ģæ®µå¯¹è¯Ŀ": 6173,
      "å®´": 6174,
      "çļĦèĭ¹æŀľ": 6175,
      "è¡¬è¡«": 6176,
      "æ°Ľ": 6177,
      "ä¸ĬçıŃ": 6178,
      "é»Ľ": 6179,
      "çļĦèĩªçĦ¶": 6180,
      "éĿ¢æĿ¡": 6181,
      "æľĢéĢĤåĲĪ": 6182,
      "äººä»¬åľ¨": 6183,
      "70": 6184,
      "å¹³éĿĻ": 6185,
      "å®ĮæĪĲä»»åĬ¡": 6186,
      "çļĦé¢ĨåŁŁ": 6187,
      "è¿Ļæł·åı¯ä»¥": 6188,
      "çļĦåĬŁèĥ½": 6189,
      "çļĦæ¯ĶèµĽ": 6190,
      "å¦Ĥä»Ĭ": 6191,
      "ä»ĩ": 6192,
      "ä¸ĭéĿ¢çļĦæĸĩæľ¬": 6193,
      "ä»¥ä¸ĭåĩłä¸ª": 6194,
      "èĪĴéĢĤçļĦ": 6195,
      "æĺ¯ä¸ºäºĨ": 6196,
      "åľ°çĲĥä¸Ĭ": 6197,
      "çĵ¦": 6198,
      "æĸĩæľ¬åĪĨç±»": 6199,
      "åħ¶ä»ĸäºº": 6200,
      "åģļä¸ĢäºĽ": 6201,
      "çļĦå®ļä¹ī": 6202,
      "åĮ¹éħį": 6203,
      "è´·": 6204,
      "èķ´åĲ«": 6205,
      "åĩĮ": 6206,
      "å®ĥä»¬åľ¨": 6207,
      "DNA": 6208,
      "éľĢè¦ģåľ¨": 6209,
      "æī¿æĭħ": 6210,
      "åĩºçİ°åľ¨": 6211,
      "å°±èĥ½": 6212,
      "ä¹Ĳè§Ĥ": 6213,
      "è¢Ń": 6214,
      "çļĦç¾İæĻ¯": 6215,
      "éĵģå¡Ķ": 6216,
      "æ·±æ·±": 6217,
      "ç¼ĸç¨ĭè¯Ńè¨Ģ": 6218,
      "ç»ĺçĶ»": 6219,
      "æĹĭè½¬": 6220,
      "åı£åı·": 6221,
      "ç»Ŀå¯¹": 6222,
      "çļĦè§ĤçĤ¹": 6223,
      "ä¸»æ¼Ķ": 6224,
      "ä¸ªåŃĹ": 6225,
      "çĳŁ": 6226,
      "éļ¾é¢ĺ": 6227,
      "åŃ¦ä¹łæĸ°": 6228,
      "åĲİæĿ¥": 6229,
      "ç¾İåĽ½æĢ»ç»Ł": 6230,
      "åħ¶ä¸Ńä¸Ģä¸ª": 6231,
      "åĬŀæ³ķ": 6232,
      "æĭ¥åłµ": 6233,
      "åĴĮå¯¹": 6234,
      "å¯¹æĸĩæľ¬éĶĻè¯¯è¿Ľè¡Į": 6235,
      "æ¨ª": 6236,
      "åģļèµ·": 6237,
      "éĿ¢ç²ī": 6238,
      "èĢģäºº": 6239,
      "åĲ«éĩı": 6240,
      "ç»Ļä½łä¸¤ä¸ª": 6241,
      "è®©ä»ĸä»¬": 6242,
      "ç±»ä¼¼äºİ": 6243,
      "éĹ¹": 6244,
      "ä¿¡çĶ¨": 6245,
      "åĿ¡": 6246,
      "åĽłä¸ºæĪĳ": 6247,
      "åĽ´ç»ķ": 6248,
      "å¯¹è¯Ŀä¸Ń": 6249,
      "åķ¦": 6250,
      "é£İåĲ¹": 6251,
      "çĶŁæĪĲä¸Ģé¦ĸ": 6252,
      "çĶ·äºº": 6253,
      "å¹¶å¯¹": 6254,
      "æµĨ": 6255,
      "çŃīå¤ļç§į": 6256,
      "æ²³æµģ": 6257,
      "æĸĩæľ¬çºłéĶĻ": 6258,
      "AP": 6259,
      "æĢĴ": 6260,
      "çľĭçĿĢ": 6261,
      "åħ¼": 6262,
      "å¹²æĹ±": 6263,
      "ç¼ĸè¾ĳä¸ĭéĿ¢": 6264,
      "æĿľ": 6265,
      "åĴĮå°ı": 6266,
      "å¸ħ": 6267,
      "è·Łè¸ª": 6268,
      "åľĨå½¢": 6269,
      "åĴĮä½¿çĶ¨": 6270,
      "æĹĭå¾ĭ": 6271,
      "è½¨éģĵ": 6272,
      "è¿½æº¯": 6273,
      "åħĥéĴ±": 6274,
      "ä¸´åºĬ": 6275,
      "æĶ¾ç½®": 6276,
      "äººå·¥æĻºèĥ½å°Ĩ": 6277,
      "èĢĲå¿ĥ": 6278,
      "å¦ĤæŀľæĤ¨éľĢè¦ģ": 6279,
      "çĶŁæĪĲä»ĸä»¬ä¹ĭéĹ´": 6280,
      "è¦ģæ±Ĥå¯¹è¯ĿåĨħå®¹": 6281,
      "è¯¦ç»Ĩä¸°å¯Į": 6282,
      "è§Ĵèī²ä¿¡æģ¯å¦Ĥä¸ĭ": 6283,
      "ç»Ļä½łä¸¤ä¸ªè§Ĵèī²ä¿¡æģ¯å¦Ĥä¸ĭ": 6284,
      "çĶŁæĪĲä»ĸä»¬ä¹ĭéĹ´çļĦä¸Ģæ®µå¯¹è¯Ŀ": 6285,
      "è¦ģæ±Ĥå¯¹è¯ĿåĨħå®¹è¯¦ç»Ĩä¸°å¯Į": 6286,
      "éĽĩ": 6287,
      "1000": 6288,
      "æŀļ": 6289,
      "ä»¥éģ¿åħį": 6290,
      "è¾¾æĪĲ": 6291,
      "¬éĹ´": 6292,
      "æł¼å¼ı": 6293,
      "Ġä»ĸ": 6294,
      "æĶ¹éĿ©": 6295,
      "èĤĿ": 6296,
      "æľĢéĩįè¦ģçļĦæĺ¯": 6297,
      "Ġè¿Ļä¸ª": 6298,
      "ç½Ĺé©¬": 6299,
      "äºĨä¸Ģåľº": 6300,
      "èľľèľĤ": 6301,
      "æ°Ķè±¡": 6302,
      "åħ±åĲĮåĬªåĬĽ": 6303,
      "æłĩçĤ¹ç¬¦åı·": 6304,
      "æĹłæķ°": 6305,
      "æ¯Ķçī¹": 6306,
      "ç²¾èĩ´": 6307,
      "å®¢è§Ĥ": 6308,
      "çļĦæĢĿæĥ³": 6309,
      "çļĦçĤ": 6310,
      "æĢ§éĹ®é¢ĺ": 6311,
      "æ¹¾": 6312,
      "çľĭäºĨ": 6313,
      "å·²ç»ıåľ¨": 6314,
      "åĢ¡": 6315,
      "å¿ĥè¡Ģç®¡": 6316,
      "ç¿»è¯ĳæĪĲçİ°ä»£": 6317,
      "èĬĤçľģ": 6318,
      "æłĳåı¶": 6319,
      "éĢĲæŃ¥": 6320,
      "åħ¨çĲĥæ°ĶåĢĻåıĺåĮĸ": 6321,
      "çĶŁåĳ½çļĦ": 6322,
      "ç¬Ķè®°": 6323,
      "ĸæģ¯åľ°": 6324,
      "åħĭæĸ¯": 6325,
      "æľºåĻ¨åŃ¦ä¹łåĴĮ": 6326,
      "åģļä»Ģä¹Ī": 6327,
      "ä¿¡æģ¯åĴĮ": 6328,
      "åĨĽäºĭ": 6329,
      "äººå·¥æĻºèĥ½æĬĢæľ¯çļĦ": 6330,
      "ç¿»è¯ĳæĪĲæĸĩè¨Ģæĸĩ": 6331,
      "å¼¯": 6332,
      "ç»ĦæĪĲçļĦ": 6333,
      "èįīåİŁ": 6334,
      "è¿ĩæ»¤": 6335,
      "åħįè´¹": 6336,
      "ä¸Ńåįİ": 6337,
      "è®©æĤ¨": 6338,
      "çļĦæĤ": 6339,
      "ç®Ģæĺİ": 6340,
      "æĺ¯ä»Ģä¹ĪæĦıæĢĿ": 6341,
      "æľīå¤ļå°ĳ": 6342,
      "æľīäºĨ": 6343,
      "ä¸ĭåİ»": 6344,
      "å¯¦": 6345,
      "çĶŁäº§åĬĽ": 6346,
      "éĨĭ": 6347,
      "å¦ĤæŀľæĤ¨åĸľæ¬¢": 6348,
      "ç»ĵæŀĦåĴĮ": 6349,
      "å®ĿèĹı": 6350,
      "èµ¢å¾ĹäºĨ": 6351,
      "æĺ¯ä¸Ģä¸ªéĿŀå¸¸": 6352,
      "æł¹æį®ä»¥ä¸Ĭ": 6353,
      "...": 6354,
      "è¯ŃæĢģ": 6355,
      "æĪĳçĽ¸ä¿¡": 6356,
      "è¿Ļä¸ªæĸĩæľ¬": 6357,
      "ä¸ĸçķĮçļĦ": 6358,
      "ä¸įåºĶè¯¥": 6359,
      "åĳ½åĲį": 6360,
      "éħįåĲĪ": 6361,
      "åľ¨è¿Ļç§į": 6362,
      "åı¥åŃĲä¸ŃçļĦ": 6363,
      "èº«ä¸Ĭ": 6364,
      "è¿Ļç¯ĩæĸĩç«łä¸»è¦ģ": 6365,
      "åĲ¦å®ļ": 6366,
      "æĿ¥è¿Ľè¡Į": 6367,
      "å¥¹åľ¨": 6368,
      "é«ĺæ¸©": 6369,
      "èģĶçĽŁ": 6370,
      "è¥¿çĵľ": 6371,
      "ç¿»è¯ĳæĪĲçİ°ä»£æĸĩ": 6372,
      "ä¹ĭæĥħ": 6373,
      "çĮ´": 6374,
      "æĲľç´¢å¼ķæĵİ": 6375,
      "èīºæľ¯åĵģ": 6376,
      "çĽ¸åĲĮçļĦ": 6377,
      "æ»ĭ": 6378,
      "è¶ĬæĿ¥è¶Ĭå¤ļçļĦ": 6379,
      "çº¿ä¸Ĭ": 6380,
      "è¡¨è¾¾æĸ¹å¼ı": 6381,
      "çºªå¿µ": 6382,
      "éĢĽ": 6383,
      "æĽ´å¤§çļĦ": 6384,
      "é¢ĳç¹ģ": 6385,
      "çļĦæ³¨æĦı": 6386,
      "è¿ŀè´¯": 6387,
      "è¿½éĢĲ": 6388,
      "åĩıè½»åİĭåĬĽ": 6389,
      "ç»ĵå±Ģ": 6390,
      "éħ·": 6391,
      "å¤ĸæĺŁ": 6392,
      "ç°": 6393,
      "è¿Ļæĺ¯ä¸Ģç§į": 6394,
      "æ´¾å¯¹": 6395,
      "çĶŁæ´»åľ¨": 6396,
      "åİ¦": 6397,
      "æ£ĴäºĨ": 6398,
      "ä½¿è®¡ç®Ĺæľº": 6399
    },
    "merges": [
      [
        "ä",
        "¸"
      ],
      [
        "ï",
        "¼"
      ],
      [
        "ç",
        "ļ"
      ],
      [
        "çļ",
        "Ħ"
      ],
      [
        "ï¼",
        "Į"
      ],
      [
        "ã",
        "Ģ"
      ],
      [
        "ãĢ",
        "Ĥ"
      ],
      [
        "ä",
        "º"
      ],
      [
        "ä",
        "»"
      ],
      [
        "å",
        "ı"
      ],
      [
        "æ",
        "ľ"
      ],
      [
        "è",
        "¿"
      ],
      [
        "æ",
        "Ī"
      ],
      [
        "å",
        "ħ"
      ],
      [
        "ä",
        "½"
      ],
      [
        "æ",
        "ĺ"
      ],
      [
        "å",
        "¤"
      ],
      [
        "è",
        "¯"
      ],
      [
        "ä¸",
        "Ģ"
      ],
      [
        "æ",
        "ĸ"
      ],
      [
        "å",
        "®"
      ],
      [
        "ç",
        "Ķ"
      ],
      [
        "å",
        "Ī"
      ],
      [
        "å",
        "Ĵ"
      ],
      [
        "å",
        "ľ"
      ],
      [
        "åĴ",
        "Į"
      ],
      [
        "å",
        "Ĳ"
      ],
      [
        "å",
        "Ĭ"
      ],
      [
        "ç",
        "»"
      ],
      [
        "ä",
        "¹"
      ],
      [
        "æĺ",
        "¯"
      ],
      [
        "å",
        "°"
      ],
      [
        "å",
        "Ń"
      ],
      [
        "ä¸",
        "ª"
      ],
      [
        "ä»",
        "¥"
      ],
      [
        "è",
        "®"
      ],
      [
        "ãĢ",
        "ģ"
      ],
      [
        "æĪ",
        "ĳ"
      ],
      [
        "åľ",
        "¨"
      ],
      [
        "äº",
        "º"
      ],
      [
        "ĥ",
        "½"
      ],
      [
        "<",
        "/"
      ],
      [
        "æľ",
        "ī"
      ],
      [
        "ï¼",
        "ļ"
      ],
      [
        "æ",
        "Ĺ"
      ],
      [
        "äº",
        "Ĩ"
      ],
      [
        "åı",
        "¯"
      ],
      [
        "è¿",
        "Ļ"
      ],
      [
        "å",
        "Ľ"
      ],
      [
        "æ",
        "Ŀ"
      ],
      [
        "å",
        "º"
      ],
      [
        "é",
        "ĩ"
      ],
      [
        "å",
        "¹"
      ],
      [
        "å",
        "¸"
      ],
      [
        "ä¸",
        "Ń"
      ],
      [
        "ä",
        "¼"
      ],
      [
        "é",
        "Ģ"
      ],
      [
        "è",
        "¡"
      ],
      [
        "è",
        "ĥ½"
      ],
      [
        "çļĦ",
        "æ"
      ],
      [
        "å",
        "ĩ"
      ],
      [
        "ãĢĤ",
        "</"
      ],
      [
        "å",
        "·"
      ],
      [
        "æĸ",
        "ĩ"
      ],
      [
        "å",
        "Į"
      ],
      [
        "è",
        "¦"
      ],
      [
        "è¦",
        "ģ"
      ],
      [
        "é",
        "¢"
      ],
      [
        "å",
        "¯"
      ],
      [
        "å",
        "¾"
      ],
      [
        "å",
        "Ĩ"
      ],
      [
        "ä¸",
        "º"
      ],
      [
        "è",
        "§"
      ],
      [
        "å",
        "¥"
      ],
      [
        "ç",
        "ī"
      ],
      [
        "ç",
        "§"
      ],
      [
        "ä»",
        "¬"
      ],
      [
        "é",
        "Ĺ"
      ],
      [
        "ç",
        "İ"
      ],
      [
        "å",
        "¼"
      ],
      [
        "ä¸",
        "į"
      ],
      [
        "çĶ",
        "¨"
      ],
      [
        "æ",
        "ķ"
      ],
      [
        "è",
        "Ģ"
      ],
      [
        "å",
        "½"
      ],
      [
        "æ",
        "Ģ"
      ],
      [
        "æ",
        "ŀ"
      ],
      [
        "çĶ",
        "Ł"
      ],
      [
        "ç",
        "Ń"
      ],
      [
        "æ",
        "ı"
      ],
      [
        "æ",
        "ī"
      ],
      [
        "æ",
        "Ń"
      ],
      [
        "åı¯",
        "ä»¥"
      ],
      [
        "é",
        "Ŀ"
      ],
      [
        "å",
        "į"
      ],
      [
        "Ġ",
        "<"
      ],
      [
        "ä",
        "¿"
      ],
      [
        "æ",
        "Ĭ"
      ],
      [
        "æ",
        "ł"
      ],
      [
        "æ",
        "³"
      ],
      [
        "ç",
        "Ľ"
      ],
      [
        "â",
        "Ģ"
      ],
      [
        "æĿ",
        "¥"
      ],
      [
        "è",
        "ĩ"
      ],
      [
        "æ",
        "Ħ"
      ],
      [
        "å",
        "ĵ"
      ],
      [
        "å",
        "¦"
      ],
      [
        "ä¸",
        "ĭ"
      ],
      [
        "ç",
        "Ĳ"
      ],
      [
        "ä¸Ģ",
        "ä¸ª"
      ],
      [
        "æĪ",
        "Ĳ"
      ],
      [
        "å",
        "İ"
      ],
      [
        "æ",
        "ĥ"
      ],
      [
        "æı",
        "Ĳ"
      ],
      [
        "æ",
        "°"
      ],
      [
        "åĪ",
        "°"
      ],
      [
        "ä»",
        "ĸ"
      ],
      [
        "æ",
        "Ľ"
      ],
      [
        "åŃ",
        "¦"
      ],
      [
        "æ",
        "Ļ"
      ],
      [
        "å¦",
        "Ĥ"
      ],
      [
        "è¡",
        "Į"
      ],
      [
        "åĩ",
        "º"
      ],
      [
        "å",
        "ĳ"
      ],
      [
        "å",
        "¿"
      ],
      [
        "æĹ",
        "¶"
      ],
      [
        "å¯",
        "¹"
      ],
      [
        "æ",
        "ĭ"
      ],
      [
        "ä½",
        "ł"
      ],
      [
        "åŃ",
        "Ĳ"
      ],
      [
        "ä",
        "¾"
      ],
      [
        "äº",
        "İ"
      ],
      [
        "æ",
        "İ"
      ],
      [
        "åľ",
        "°"
      ],
      [
        "é¢",
        "ĺ"
      ],
      [
        "ä¸",
        "Ĭ"
      ],
      [
        "ç",
        "«"
      ],
      [
        "æ",
        "Ķ"
      ],
      [
        "è",
        "´"
      ],
      [
        "å°",
        "ı"
      ],
      [
        "å¥",
        "½"
      ],
      [
        "ä¼",
        "ļ"
      ],
      [
        "çŃ",
        "ī"
      ],
      [
        "æĸ",
        "¹"
      ],
      [
        "æľ",
        "¬"
      ],
      [
        "èĩ",
        "ª"
      ],
      [
        "åĪ",
        "Ĩ"
      ],
      [
        "æĽ",
        "´"
      ],
      [
        "äº",
        "Ľ"
      ],
      [
        "å¤",
        "ļ"
      ],
      [
        "æ",
        "µ"
      ],
      [
        "æ",
        "¯"
      ],
      [
        "è",
        "µ"
      ],
      [
        "å¤",
        "§"
      ],
      [
        "å",
        "±"
      ],
      [
        "æ",
        "į"
      ],
      [
        "ï¼",
        "Ł"
      ],
      [
        "åĬ",
        "¨"
      ],
      [
        "ä½",
        "ľ"
      ],
      [
        "å·",
        "¥"
      ],
      [
        "çī",
        "©"
      ],
      [
        "ç",
        "º"
      ],
      [
        "åħ",
        "³"
      ],
      [
        "è",
        "¾"
      ],
      [
        "å¹",
        "¶"
      ],
      [
        "åı",
        "ĳ"
      ],
      [
        "ç",
        "®"
      ],
      [
        "æ",
        "Į"
      ],
      [
        "ç",
        "±"
      ],
      [
        "é",
        "£"
      ],
      [
        "é",
        "ľ"
      ],
      [
        "æĪĳ",
        "ä»¬"
      ],
      [
        "éĿ",
        "¢"
      ],
      [
        "æ",
        "´"
      ],
      [
        "å®",
        "ļ"
      ],
      [
        "æľ",
        "Ģ"
      ],
      [
        "åħ",
        "¶"
      ],
      [
        "æŀ",
        "ľ"
      ],
      [
        "å",
        "Ł"
      ],
      [
        "æ",
        "¬"
      ],
      [
        "ç§",
        "į"
      ],
      [
        "çİ",
        "°"
      ],
      [
        "çļĦ",
        "ç"
      ],
      [
        "è¿",
        "Ľ"
      ],
      [
        "æ³",
        "ķ"
      ],
      [
        "é",
        "Ļ"
      ],
      [
        "è¿",
        "ĩ"
      ],
      [
        "æ",
        "Ĥ"
      ],
      [
        "éĹ",
        "®"
      ],
      [
        "å",
        "ģ"
      ],
      [
        "æ",
        "¸"
      ],
      [
        "ä½",
        "ĵ"
      ],
      [
        "è",
        "ī"
      ],
      [
        "å¤",
        "©"
      ],
      [
        "å®",
        "ĥ"
      ],
      [
        "æį",
        "®"
      ],
      [
        "ç»",
        "Ļ"
      ],
      [
        "åĬ",
        "Ľ"
      ],
      [
        "çĲ",
        "Ĩ"
      ],
      [
        "æĺ",
        "İ"
      ],
      [
        "éľ",
        "Ģ"
      ],
      [
        "æ",
        "²"
      ],
      [
        "å°",
        "Ĩ"
      ],
      [
        "åº",
        "Ķ"
      ],
      [
        "åĬ",
        "ł"
      ],
      [
        "ç±",
        "»"
      ],
      [
        "æĸ",
        "°"
      ],
      [
        "é",
        "ģ"
      ],
      [
        "ç",
        "Ĥ"
      ],
      [
        "åĮ",
        "ĸ"
      ],
      [
        "æĢ",
        "§"
      ],
      [
        "ç",
        "Ħ"
      ],
      [
        "é",
        "«"
      ],
      [
        "åĲ",
        "Į"
      ],
      [
        "æĪ",
        "ĸ"
      ],
      [
        "ä½",
        "¿"
      ],
      [
        "åĽ",
        "ł"
      ],
      [
        "ä¿",
        "Ŀ"
      ],
      [
        "å¸",
        "¸"
      ],
      [
        "éĩ",
        "į"
      ],
      [
        "ç",
        "ľ"
      ],
      [
        "é«",
        "ĺ"
      ],
      [
        "åı",
        "¥"
      ],
      [
        "è",
        "½"
      ],
      [
        "æĦ",
        "Ł"
      ],
      [
        "å®",
        "¶"
      ],
      [
        "ä¹",
        "Ł"
      ],
      [
        "æľ",
        "º"
      ],
      [
        "å½",
        "±"
      ],
      [
        "è",
        "¶"
      ],
      [
        "æ",
        "±"
      ],
      [
        "ä¸",
        "»"
      ],
      [
        "é",
        "Ķ"
      ],
      [
        "é",
        "ĺ"
      ],
      [
        "è¯",
        "Ń"
      ],
      [
        "çĦ",
        "¶"
      ],
      [
        "ç«",
        "ł"
      ],
      [
        "å¾",
        "Ĺ"
      ],
      [
        "âĢ",
        "Ŀ"
      ],
      [
        "æķ",
        "°"
      ],
      [
        "æĸĩ",
        "ç«ł"
      ],
      [
        "éĢ",
        "ļ"
      ],
      [
        "åĵ",
        "ģ"
      ],
      [
        "âĢ",
        "ľ"
      ],
      [
        "ç",
        "³"
      ],
      [
        "éľĢ",
        "è¦ģ"
      ],
      [
        "çĶ",
        "µ"
      ],
      [
        "æĬ",
        "Ģ"
      ],
      [
        "æĻ",
        "º"
      ],
      [
        "è",
        "°"
      ],
      [
        "è§",
        "£"
      ],
      [
        "æĸĩ",
        "æľ¬"
      ],
      [
        "ä¹",
        "ĭ"
      ],
      [
        "ä¹",
        "Ī"
      ],
      [
        "æĥ",
        "ħ"
      ],
      [
        "æĤ",
        "¨"
      ],
      [
        "éĹ®",
        "é¢ĺ"
      ],
      [
        "åº",
        "¦"
      ],
      [
        "ç",
        "Ł"
      ],
      [
        "èĢ",
        "Į"
      ],
      [
        "å",
        "ī"
      ],
      [
        "æ",
        "ģ"
      ],
      [
        "è¡",
        "¨"
      ],
      [
        "ç»",
        "ı"
      ],
      [
        "æĻº",
        "èĥ½"
      ],
      [
        "è¯",
        "·"
      ],
      [
        "ç",
        "Ŀ"
      ],
      [
        "å¾",
        "Ī"
      ],
      [
        "éĹ",
        "´"
      ],
      [
        "æŃ",
        "¤"
      ],
      [
        "è",
        "Ĭ"
      ],
      [
        "å",
        "ĸ"
      ],
      [
        "ç",
        "¾"
      ],
      [
        "åħ",
        "¬"
      ],
      [
        "å",
        "¢"
      ],
      [
        "éĩ",
        "ı"
      ],
      [
        "åĽ",
        "½"
      ],
      [
        "ç",
        "©"
      ],
      [
        "çĤ",
        "¹"
      ],
      [
        "æľ",
        "¯"
      ],
      [
        "ç",
        "¤"
      ],
      [
        "èī",
        "²"
      ],
      [
        "è",
        "Ĥ"
      ],
      [
        "èĢ",
        "ħ"
      ],
      [
        "è¯",
        "į"
      ],
      [
        "å¹",
        "´"
      ],
      [
        "å®",
        "ŀ"
      ],
      [
        "æ°",
        "Ķ"
      ],
      [
        "å",
        "»"
      ],
      [
        "å",
        "Ģ"
      ],
      [
        "åı",
        "ĸ"
      ],
      [
        "ä¿",
        "¡"
      ],
      [
        "è¿Ļ",
        "ä¸ª"
      ],
      [
        "ä¹",
        "ł"
      ],
      [
        "åĲ",
        "į"
      ],
      [
        "ç",
        "¨"
      ],
      [
        "å¿",
        "ĥ"
      ],
      [
        "ä½",
        "Ĩ"
      ],
      [
        "åĲ",
        "Ī"
      ],
      [
        "æĦ",
        "ı"
      ],
      [
        "è¯",
        "¥"
      ],
      [
        "ä¸",
        "ļ"
      ],
      [
        "ä¾",
        "Ľ"
      ],
      [
        "ç",
        "ĸ"
      ],
      [
        "è®",
        "¡"
      ],
      [
        "åĲ",
        "İ"
      ],
      [
        "ç",
        "¡"
      ],
      [
        "é",
        "Ĥ"
      ],
      [
        "äº",
        "ĭ"
      ],
      [
        "æī",
        "Ģ"
      ],
      [
        "ä»¥",
        "ä¸ĭ"
      ],
      [
        "ä»",
        "İ"
      ],
      [
        "è¿",
        "ĺ"
      ],
      [
        "å»",
        "º"
      ],
      [
        "æ",
        "®"
      ],
      [
        "çĽ",
        "¸"
      ],
      [
        "çĿ",
        "Ģ"
      ],
      [
        "çĲ",
        "ĥ"
      ],
      [
        "ä¸Ģ",
        "äºĽ"
      ],
      [
        "é",
        "ĥ½"
      ],
      [
        "åĮ",
        "ħ"
      ],
      [
        "æıĲ",
        "ä¾Ľ"
      ],
      [
        "æ´",
        "»"
      ],
      [
        "ä¸",
        "İ"
      ],
      [
        "ç¾",
        "İ"
      ],
      [
        "æł",
        "¹"
      ],
      [
        "è¿Ľ",
        "è¡Į"
      ],
      [
        "æ",
        "Ł"
      ],
      [
        "åı¥",
        "åŃĲ"
      ],
      [
        "ç",
        "½"
      ],
      [
        "å¼",
        "ı"
      ],
      [
        "é£",
        "Ł"
      ],
      [
        "åħ",
        "¥"
      ],
      [
        "å±",
        "ķ"
      ],
      [
        "åħ",
        "¨"
      ],
      [
        "éĩ",
        "Į"
      ],
      [
        "è¿",
        "°"
      ],
      [
        "äºº",
        "å·¥"
      ],
      [
        "å¤",
        "ĸ"
      ],
      [
        "çİ",
        "¯"
      ],
      [
        "é",
        "¡"
      ],
      [
        "ç",
        "ķ"
      ],
      [
        "çī",
        "¹"
      ],
      [
        "ä½¿",
        "çĶ¨"
      ],
      [
        "æĥ",
        "³"
      ],
      [
        "ç",
        "´"
      ],
      [
        "éĿ",
        "ŀ"
      ],
      [
        "è",
        "Ĳ"
      ],
      [
        "é",
        "¦"
      ],
      [
        "äººå·¥",
        "æĻºèĥ½"
      ],
      [
        "ç",
        "¯"
      ],
      [
        "åĨ",
        "ħ"
      ],
      [
        "æŃ",
        "£"
      ],
      [
        "æ",
        "¡"
      ],
      [
        "è",
        "¢"
      ],
      [
        "é",
        "ļ"
      ],
      [
        "å½",
        "ĵ"
      ],
      [
        "å¼",
        "Ģ"
      ],
      [
        "åİ",
        "»"
      ],
      [
        "é",
        "ķ"
      ],
      [
        "æģ",
        "¯"
      ],
      [
        "æł¹",
        "æį®"
      ],
      [
        "æ°",
        "´"
      ],
      [
        "æ",
        "·"
      ],
      [
        "æ¯",
        "Ķ"
      ],
      [
        "åı",
        "ĺ"
      ],
      [
        "åĨ",
        "Ļ"
      ],
      [
        "æ®",
        "µ"
      ],
      [
        "æĺ¯",
        "ä¸Ģ"
      ],
      [
        "å",
        "ŀ"
      ],
      [
        "é",
        "ĥ"
      ],
      [
        "ç³",
        "»"
      ],
      [
        "è",
        "·"
      ],
      [
        "åĬ",
        "©"
      ],
      [
        "è",
        "ģ"
      ],
      [
        "è¯",
        "´"
      ],
      [
        "åŃ¦",
        "ä¹ł"
      ],
      [
        "ç¨",
        "ĭ"
      ],
      [
        "åĪ",
        "¶"
      ],
      [
        "åħ",
        "·"
      ],
      [
        "ç¡",
        "®"
      ],
      [
        "å¸",
        "Ĥ"
      ],
      [
        "è®",
        "©"
      ],
      [
        "ä»",
        "Ģ"
      ],
      [
        "é",
        "Ľ"
      ],
      [
        "æĮ",
        "ģ"
      ],
      [
        "éģ",
        "ĵ"
      ],
      [
        "å",
        "Ŀ"
      ],
      [
        "çľ",
        "ĭ"
      ],
      [
        "ç¯",
        "ĩ"
      ],
      [
        "ç",
        "¼"
      ],
      [
        "äº",
        "§"
      ],
      [
        "èµ",
        "·"
      ],
      [
        "ç",
        "ĥ"
      ],
      [
        "ç»",
        "ĵ"
      ],
      [
        "å",
        "ķ"
      ],
      [
        "ä»Ģ",
        "ä¹Ī"
      ],
      [
        "æĬĢ",
        "æľ¯"
      ],
      [
        "å¸",
        "®"
      ],
      [
        "è",
        "º"
      ],
      [
        "åı",
        "Ĭ"
      ],
      [
        "è¯",
        "Ŀ"
      ],
      [
        "éĥ",
        "¨"
      ],
      [
        "çĽ",
        "®"
      ],
      [
        "éĤ",
        "£"
      ],
      [
        "è",
        "ĭ"
      ],
      [
        "ç",
        "¬"
      ],
      [
        "ä½",
        "ķ"
      ],
      [
        "éķ",
        "¿"
      ],
      [
        "éĿŀ",
        "å¸¸"
      ],
      [
        "è",
        "į"
      ],
      [
        "åĬ",
        "¡"
      ],
      [
        "ç®",
        "Ĺ"
      ],
      [
        "æ¯",
        "ı"
      ],
      [
        "èº",
        "«"
      ],
      [
        "ç",
        "ĭ"
      ],
      [
        "è¢",
        "«"
      ],
      [
        "åģ",
        "¥"
      ],
      [
        "ç§",
        "ĳ"
      ],
      [
        "æĹ",
        "¥"
      ],
      [
        "å°",
        "ĳ"
      ],
      [
        "å·",
        "±"
      ],
      [
        "åī",
        "į"
      ],
      [
        "å",
        "Ļ"
      ],
      [
        "æĭ",
        "¬"
      ],
      [
        "é",
        "ħ"
      ],
      [
        "éĢ",
        "Ĥ"
      ],
      [
        "åĸ",
        "ľ"
      ],
      [
        "èĩª",
        "å·±"
      ],
      [
        "åľ",
        "º"
      ],
      [
        "å®",
        "¹"
      ],
      [
        "åı",
        "Ĺ"
      ],
      [
        "åı¯",
        "èĥ½"
      ],
      [
        "æĹ",
        "ł"
      ],
      [
        "åĽ",
        "ŀ"
      ],
      [
        "æ¬",
        "¢"
      ],
      [
        "ä¿¡",
        "æģ¯"
      ],
      [
        "éĢ",
        "ī"
      ],
      [
        "ä»ĸ",
        "ä»¬"
      ],
      [
        "åĻ",
        "¨"
      ],
      [
        "åĮ",
        "»"
      ],
      [
        "äº",
        "¤"
      ],
      [
        "å¥½",
        "çļĦ"
      ],
      [
        "ä»",
        "£"
      ],
      [
        "åŀ",
        "ĭ"
      ],
      [
        "é¢",
        "Ĩ"
      ],
      [
        "åĪ",
        "«"
      ],
      [
        "è",
        "Ļ"
      ],
      [
        "ç",
        "ł"
      ],
      [
        "å¤",
        "Ħ"
      ],
      [
        "çĶµ",
        "å½±"
      ],
      [
        "çŃ",
        "Ķ"
      ],
      [
        "è",
        "¨"
      ],
      [
        "é",
        "¥"
      ],
      [
        "ç",
        "Ī"
      ],
      [
        "é",
        "ª"
      ],
      [
        "æ",
        "¶"
      ],
      [
        "ä½",
        "į"
      ],
      [
        "åĪ",
        "©"
      ],
      [
        "è´",
        "¨"
      ],
      [
        "æ",
        "»"
      ],
      [
        "è®",
        "®"
      ],
      [
        "é£",
        "İ"
      ],
      [
        "å¢",
        "ĥ"
      ],
      [
        "å¹",
        "³"
      ],
      [
        "ä¸",
        "¤"
      ],
      [
        "æ¡",
        "Ī"
      ],
      [
        "æī",
        "ĭ"
      ],
      [
        "ç",
        "Ĺ"
      ],
      [
        "å",
        "§"
      ],
      [
        "ä¾",
        "ĭ"
      ],
      [
        "è¿Ļ",
        "äºĽ"
      ],
      [
        "éĩį",
        "è¦ģ"
      ],
      [
        "éĢļ",
        "è¿ĩ"
      ],
      [
        "å¦Ĥ",
        "æŀľ"
      ],
      [
        "ä¸Ń",
        "çļĦ"
      ],
      [
        "é",
        "Ł"
      ],
      [
        "ä»",
        "»"
      ],
      [
        "åĵ",
        "į"
      ],
      [
        "ä»",
        "¶"
      ],
      [
        "çĶŁ",
        "æĪĲ"
      ],
      [
        "åĮħ",
        "æĭ¬"
      ],
      [
        "è®",
        "º"
      ],
      [
        "åŃ",
        "Ĺ"
      ],
      [
        "åı",
        "¸"
      ],
      [
        "åŁ",
        "Ł"
      ],
      [
        "åıĳ",
        "å±ķ"
      ],
      [
        "è¨",
        "Ģ"
      ],
      [
        "ç",
        "Ļ"
      ],
      [
        "åºĶ",
        "çĶ¨"
      ],
      [
        "å°ı",
        "æĺİ"
      ],
      [
        "å°",
        "±"
      ],
      [
        "æł",
        "ĩ"
      ],
      [
        "ç®",
        "Ģ"
      ],
      [
        "æ±",
        "Ĥ"
      ],
      [
        "æ²",
        "¡"
      ],
      [
        "åĪ",
        "Ľ"
      ],
      [
        "åį",
        "ķ"
      ],
      [
        "åĨ",
        "³"
      ],
      [
        "è§",
        "Ĥ"
      ],
      [
        "æĶ",
        "¹"
      ],
      [
        "æĶ",
        "¾"
      ],
      [
        "æİ",
        "¨"
      ],
      [
        "æ¸",
        "¸"
      ],
      [
        "è",
        "Ī"
      ],
      [
        "ç",
        "ģ"
      ],
      [
        "åı",
        "ª"
      ],
      [
        "æľ",
        "ª"
      ],
      [
        "è®",
        "¾"
      ],
      [
        "å½±",
        "åĵį"
      ],
      [
        "çŁ",
        "¥"
      ],
      [
        "åº",
        "·"
      ],
      [
        "ç»",
        "Ł"
      ],
      [
        "æĹ¶",
        "éĹ´"
      ],
      [
        "ä¸",
        "ī"
      ],
      [
        "æĢ",
        "»"
      ],
      [
        "å¸®",
        "åĬ©"
      ],
      [
        "ç",
        "¥"
      ],
      [
        "æľ",
        "Ł"
      ],
      [
        "é",
        "»"
      ],
      [
        "å",
        "£"
      ],
      [
        "åĸľ",
        "æ¬¢"
      ],
      [
        "æ",
        "º"
      ],
      [
        "ä¹",
        "Ĳ"
      ],
      [
        "èĬ",
        "Ĥ"
      ],
      [
        "åħ¬",
        "åı¸"
      ],
      [
        "æı",
        "ı"
      ],
      [
        "æķ",
        "Ī"
      ],
      [
        "è¯",
        "Ĩ"
      ],
      [
        "åģ¥",
        "åº·"
      ],
      [
        "æµ",
        "·"
      ],
      [
        "æ",
        "¨"
      ],
      [
        "å¼",
        "º"
      ],
      [
        "å¤",
        "Ł"
      ],
      [
        "è",
        "ĥ"
      ],
      [
        "ç»Ļ",
        "å®ļ"
      ],
      [
        "ç¤",
        "¾"
      ],
      [
        "æĸ",
        "Ń"
      ],
      [
        "åĩ",
        "ı"
      ],
      [
        "äºº",
        "ç±»"
      ],
      [
        "æ",
        "ĳ"
      ],
      [
        "æ³",
        "¨"
      ],
      [
        "æŀ",
        "ģ"
      ],
      [
        "å®",
        "ī"
      ],
      [
        "é¢Ĩ",
        "åŁŁ"
      ],
      [
        "çĶŁ",
        "æ´»"
      ],
      [
        "æ",
        "¼"
      ],
      [
        "æľ",
        "į"
      ],
      [
        "è¾",
        "¾"
      ],
      [
        "æ·",
        "±"
      ],
      [
        "çĶ",
        "±"
      ],
      [
        "æł",
        "·"
      ],
      [
        "çĸ",
        "Ĺ"
      ],
      [
        "åĽł",
        "æŃ¤"
      ],
      [
        "çİ¯",
        "å¢ĥ"
      ],
      [
        "ä¸į",
        "åĲĮ"
      ],
      [
        "æŃ",
        "¥"
      ],
      [
        "å·¥",
        "ä½ľ"
      ],
      [
        "æĺ",
        "Ł"
      ],
      [
        "è",
        "±"
      ],
      [
        "è",
        "Ħ"
      ],
      [
        "é",
        "©"
      ],
      [
        "éŁ",
        "³"
      ],
      [
        "å¤",
        "ª"
      ],
      [
        "æķ°",
        "æį®"
      ],
      [
        "æµ",
        "ģ"
      ],
      [
        "å½",
        "¢"
      ],
      [
        "åİ",
        "Ł"
      ],
      [
        "åģ",
        "ļ"
      ],
      [
        "ä¸",
        "ĸ"
      ],
      [
        "å·",
        "²"
      ],
      [
        "è",
        "İ"
      ],
      [
        "æıĲ",
        "åıĸ"
      ],
      [
        "æĻ",
        "¯"
      ],
      [
        "è½",
        "¦"
      ],
      [
        "åı",
        "ĭ"
      ],
      [
        "æıı",
        "è¿°"
      ],
      [
        "æ²¡",
        "æľī"
      ],
      [
        "å¸",
        "¦"
      ],
      [
        "æĪ",
        "·"
      ],
      [
        "åĽł",
        "ä¸º"
      ],
      [
        "å¯",
        "¼"
      ],
      [
        "è¿",
        "Ĳ"
      ],
      [
        "æ¬",
        "¡"
      ],
      [
        "åĳ",
        "ĺ"
      ],
      [
        "ç",
        "Į"
      ],
      [
        "ç",
        "²"
      ],
      [
        "é",
        "Ĵ"
      ],
      [
        "è",
        "ı"
      ],
      [
        "å»º",
        "è®®"
      ],
      [
        "æ¨",
        "¡"
      ],
      [
        "æĸ",
        "Ļ"
      ],
      [
        "éĶ",
        "®"
      ],
      [
        "æıĲ",
        "é«ĺ"
      ],
      [
        "è¯",
        "ķ"
      ],
      [
        "èĩª",
        "çĦ¶"
      ],
      [
        "å®ĥ",
        "ä»¬"
      ],
      [
        "æī",
        "¾"
      ],
      [
        "ãĢ",
        "ĭ"
      ],
      [
        "åŁ",
        "º"
      ],
      [
        "ãĢ",
        "Ĭ"
      ],
      [
        "å¦Ĥ",
        "ä½ķ"
      ],
      [
        "è®",
        "¤"
      ],
      [
        "åİ",
        "Ĩ"
      ],
      [
        "ä¹",
        "ī"
      ],
      [
        "åŁ",
        "İ"
      ],
      [
        "æĽ´",
        "åĬł"
      ],
      [
        "å¥",
        "¹"
      ],
      [
        "ä¼",
        "ł"
      ],
      [
        "æº",
        "Ĳ"
      ],
      [
        "ä¸»",
        "è¦ģ"
      ],
      [
        "åĲ",
        "Ħ"
      ],
      [
        "åħ³",
        "éĶ®"
      ],
      [
        "ç¤",
        "º"
      ],
      [
        "æĬ",
        "¤"
      ],
      [
        "æĭ",
        "©"
      ],
      [
        "æĮ",
        "ĩ"
      ],
      [
        "åºĶ",
        "è¯¥"
      ],
      [
        "åĲ",
        "ĳ"
      ],
      [
        "éĢ",
        "ł"
      ],
      [
        "æł",
        "¼"
      ],
      [
        "ç»",
        "Ħ"
      ],
      [
        "éĢī",
        "æĭ©"
      ],
      [
        "çķ",
        "Į"
      ],
      [
        "åħ",
        "ī"
      ],
      [
        "çļĦæ",
        "ķ"
      ],
      [
        "æĸ¹",
        "å¼ı"
      ],
      [
        "æĹ",
        "ħ"
      ],
      [
        "åĲĮ",
        "æĹ¶"
      ],
      [
        "è¿",
        "ĳ"
      ],
      [
        "èĥ½",
        "å¤Ł"
      ],
      [
        "ç¯ĩ",
        "æĸĩç«ł"
      ],
      [
        "èĲ",
        "½"
      ],
      [
        "ç©",
        "¶"
      ],
      [
        "è",
        "£"
      ],
      [
        "åĨħ",
        "å®¹"
      ],
      [
        "è°",
        "ĥ"
      ],
      [
        "äºº",
        "ä»¬"
      ],
      [
        "åı",
        "£"
      ],
      [
        "çĪ",
        "±"
      ],
      [
        "ï¼",
        "Ľ"
      ],
      [
        "è¯Ń",
        "è¨Ģ"
      ],
      [
        "è§",
        "Ĩ"
      ],
      [
        "åĳ",
        "³"
      ],
      [
        "ç©",
        "º"
      ],
      [
        "çº",
        "¢"
      ],
      [
        "åĮ",
        "º"
      ],
      [
        "èĢ",
        "ĥ"
      ],
      [
        "ä»",
        "·"
      ],
      [
        "åĲ",
        "Ĺ"
      ],
      [
        "åħ³",
        "äºİ"
      ],
      [
        "ç",
        "Ĭ"
      ],
      [
        "ç½",
        "ĳ"
      ],
      [
        "èĬ",
        "±"
      ],
      [
        "åĳ",
        "Ĭ"
      ],
      [
        "æĺ¯",
        "ä¸Ģä¸ª"
      ],
      [
        "ä¾ĭ",
        "å¦Ĥ"
      ],
      [
        "æľª",
        "æĿ¥"
      ],
      [
        "çĹ",
        "ħ"
      ],
      [
        "é",
        "¤"
      ],
      [
        "è®¡",
        "ç®Ĺ"
      ],
      [
        "å¿",
        "«"
      ],
      [
        "å¹",
        "¿"
      ],
      [
        "æľº",
        "åĻ¨"
      ],
      [
        "ç®",
        "¡"
      ],
      [
        "æĸ¹",
        "æ³ķ"
      ],
      [
        "æĸ¹",
        "éĿ¢"
      ],
      [
        "é¢",
        "Ħ"
      ],
      [
        "å¢",
        "ŀ"
      ],
      [
        "ï¼",
        "ī"
      ],
      [
        "åķ",
        "Ĩ"
      ],
      [
        "éª",
        "Į"
      ],
      [
        "é¤",
        "Ĳ"
      ],
      [
        "æĢ",
        "Ŀ"
      ],
      [
        "Ķ",
        "ç©¶"
      ],
      [
        "ç",
        "¦"
      ],
      [
        "ä¹",
        "¦"
      ],
      [
        "ä¸",
        "Ķ"
      ],
      [
        "åĩ",
        "Ĩ"
      ],
      [
        "å®",
        "Į"
      ],
      [
        "åĩ",
        "ł"
      ],
      [
        "é¦",
        "ĸ"
      ],
      [
        "é",
        "ĵ"
      ],
      [
        "å®",
        "¢"
      ],
      [
        "éĶ",
        "Ļ"
      ],
      [
        "åĪ°",
        "äºĨ"
      ],
      [
        "é¡",
        "¹"
      ],
      [
        "åħ¶",
        "ä»ĸ"
      ],
      [
        "ä¼",
        "ĺ"
      ],
      [
        "è¶",
        "Ĭ"
      ],
      [
        "ä»¥",
        "åıĬ"
      ],
      [
        "ä¸»",
        "é¢ĺ"
      ],
      [
        "é",
        "¸"
      ],
      [
        "å¼",
        "ķ"
      ],
      [
        "éĩ",
        "ĳ"
      ],
      [
        "è®",
        "¸"
      ],
      [
        "è¯",
        "Ħ"
      ],
      [
        "æ",
        "ļ"
      ],
      [
        "æ¸",
        "ħ"
      ],
      [
        "åħ",
        "Ī"
      ],
      [
        "ç´",
        "ł"
      ],
      [
        "åĬ",
        "Ł"
      ],
      [
        "æ",
        "£"
      ],
      [
        "å¤",
        "ĩ"
      ],
      [
        "è½",
        "»"
      ],
      [
        "æİ",
        "¥"
      ],
      [
        "è§",
        "ī"
      ],
      [
        "åĪ",
        "Ĺ"
      ],
      [
        "ï¼",
        "Ī"
      ],
      [
        "è¯",
        "»"
      ],
      [
        "èµ",
        "Ħ"
      ],
      [
        "æĪ",
        "ĺ"
      ],
      [
        "è",
        "Į"
      ],
      [
        "åĪĨ",
        "ç±»"
      ],
      [
        "å§",
        "ĭ"
      ],
      [
        "ä»",
        "Ĭ"
      ],
      [
        "ä¸ª",
        "äºº"
      ],
      [
        "éĺ",
        "³"
      ],
      [
        "çŁ",
        "Ń"
      ],
      [
        "èĩ",
        "´"
      ],
      [
        "åŃ",
        "ĺ"
      ],
      [
        "åĵ",
        "ª"
      ],
      [
        "æµ",
        "ĭ"
      ],
      [
        "æķ",
        "Ļ"
      ],
      [
        "æĢ",
        "ģ"
      ],
      [
        "æ¸",
        "©"
      ],
      [
        "ç»",
        "Ń"
      ],
      [
        "åĢ",
        "Ļ"
      ],
      [
        "ï¼",
        "ģ"
      ],
      [
        "æľ",
        "ĭ"
      ],
      [
        "æŀ",
        "Ĳ"
      ],
      [
        "ç¼",
        "ĸ"
      ],
      [
        "ä¸ĸ",
        "çķĮ"
      ],
      [
        "åħ",
        "±"
      ],
      [
        "ä½Ĩ",
        "æĺ¯"
      ],
      [
        "åĲ",
        "«"
      ],
      [
        "æľ",
        "Ī"
      ],
      [
        "èı",
        "ľ"
      ],
      [
        "æľĭ",
        "åıĭ"
      ],
      [
        "çº",
        "¦"
      ],
      [
        "åħ",
        "ĭ"
      ],
      [
        "ç§",
        "¯"
      ],
      [
        "ç«",
        "ĭ"
      ],
      [
        "çİ",
        "ĩ"
      ],
      [
        "åĽŀ",
        "çŃĶ"
      ],
      [
        "æĸĩ",
        "åĮĸ"
      ],
      [
        "åĪĨ",
        "æŀĲ"
      ],
      [
        "å¤Ħ",
        "çĲĨ"
      ],
      [
        "åı",
        "²"
      ],
      [
        "ç»",
        "Ĩ"
      ],
      [
        "çļĦæ",
        "ĥ"
      ],
      [
        "ä¸Ģ",
        "ä¸ĭ"
      ],
      [
        "æĶ",
        "¯"
      ],
      [
        "åĩı",
        "å°ĳ"
      ],
      [
        "åŁİ",
        "å¸Ĥ"
      ],
      [
        "è±",
        "¡"
      ],
      [
        "å±",
        "±"
      ],
      [
        "ä¹ĭ",
        "ä¸Ģ"
      ],
      [
        "è¶",
        "³"
      ],
      [
        "è¿Ļ",
        "ç¯ĩæĸĩç«ł"
      ],
      [
        "ä¸Ń",
        "åĽ½"
      ],
      [
        "æķ",
        "´"
      ],
      [
        "åĲ",
        "¦"
      ],
      [
        "å¤",
        "į"
      ],
      [
        "ç¬",
        "¬"
      ],
      [
        "åĪ",
        "Ļ"
      ],
      [
        "æ»",
        "¡"
      ],
      [
        "åĨ",
        "µ"
      ],
      [
        "ä¿Ŀ",
        "æĬ¤"
      ],
      [
        "çł",
        "Ķç©¶"
      ],
      [
        "ĺ",
        "è¦ģ"
      ],
      [
        "è",
        "ĳ"
      ],
      [
        "åħ",
        "ĥ"
      ],
      [
        "è§",
        "Ĵ"
      ],
      [
        "ç¥",
        "ŀ"
      ],
      [
        "é¥",
        "®"
      ],
      [
        "2",
        "0"
      ],
      [
        "å·²",
        "ç»ı"
      ],
      [
        "å",
        "ĥ"
      ],
      [
        "æľ",
        "Ľ"
      ],
      [
        "è®¸",
        "å¤ļ"
      ],
      [
        "æİ",
        "¢"
      ],
      [
        "äºĨ",
        "ä¸Ģ"
      ],
      [
        "èĩªå·±",
        "çļĦ"
      ],
      [
        "ä¸¤",
        "ä¸ª"
      ],
      [
        "ç³",
        "ĸ"
      ],
      [
        "éĩ",
        "ĩ"
      ],
      [
        "åı",
        "į"
      ],
      [
        "ç",
        "¿"
      ],
      [
        "è°",
        "¢"
      ],
      [
        "èĢ",
        "ģ"
      ],
      [
        "äº§",
        "åĵģ"
      ],
      [
        "çº",
        "¿"
      ],
      [
        "åĪ",
        "Ĵ"
      ],
      [
        "è¾",
        "ĵ"
      ],
      [
        "çľ",
        "Ł"
      ],
      [
        "åĮ»",
        "çĸĹ"
      ],
      [
        "æŃ¤",
        "å¤ĸ"
      ],
      [
        "çĭ",
        "Ĺ"
      ],
      [
        "ç³»",
        "ç»Ł"
      ],
      [
        "æĽ´",
        "å¤ļ"
      ],
      [
        "è§",
        "Ħ"
      ],
      [
        "å°",
        "½"
      ],
      [
        "éĢ",
        "Ł"
      ],
      [
        "å",
        "Ķ"
      ],
      [
        "ç",
        "ħ"
      ],
      [
        "è¶",
        "£"
      ],
      [
        "è·",
        "¯"
      ],
      [
        "éĻ",
        "©"
      ],
      [
        "å¥",
        "³"
      ],
      [
        "åı",
        "Ĥ"
      ],
      [
        "çļĦ",
        "äºº"
      ],
      [
        "èģ",
        "Ķ"
      ],
      [
        "åĲ",
        "ĥ"
      ],
      [
        "ä¿Ŀ",
        "æĮģ"
      ],
      [
        "ä»",
        "½"
      ],
      [
        "æĸ",
        "¯"
      ],
      [
        "è",
        "¥"
      ],
      [
        "åħ¨",
        "çĲĥ"
      ],
      [
        "æĺ¯ä¸Ģ",
        "ç§į"
      ],
      [
        "æĬ",
        "¥"
      ],
      [
        "æĺ",
        "ĵ"
      ],
      [
        "çĽ",
        "´"
      ],
      [
        "åĬ¨",
        "çī©"
      ],
      [
        "Â",
        "·"
      ],
      [
        "æľį",
        "åĬ¡"
      ],
      [
        "çĻ",
        "½"
      ],
      [
        "å¤",
        "´"
      ],
      [
        "åĢ",
        "¼"
      ],
      [
        "è¥",
        "¿"
      ],
      [
        "æĸ",
        "½"
      ],
      [
        "è§£",
        "åĨ³"
      ],
      [
        "æİ",
        "Ĵ"
      ],
      [
        "æĪĲ",
        "ä¸º"
      ],
      [
        "ħ",
        "äºĭ"
      ],
      [
        "åĨ",
        "į"
      ],
      [
        "åĥ",
        "ı"
      ],
      [
        "çĥ",
        "Ń"
      ],
      [
        "çİ¯",
        "ä¿Ŀ"
      ],
      [
        "ä»",
        "ĭ"
      ],
      [
        "åĽ",
        "¾"
      ],
      [
        "æ´»",
        "åĬ¨"
      ],
      [
        "å",
        "²"
      ],
      [
        "éļ",
        "¾"
      ],
      [
        "ä¹",
        "°"
      ],
      [
        "ä¾",
        "¿"
      ],
      [
        "åĳ",
        "¨"
      ],
      [
        "çļĦ",
        "ä¸Ģ"
      ],
      [
        "æŁ",
        "¥"
      ],
      [
        "æĪĸ",
        "èĢħ"
      ],
      [
        "èİ",
        "·"
      ],
      [
        "è¾",
        "ĥ"
      ],
      [
        "èĻ",
        "ĳ"
      ],
      [
        "æŀ",
        "Ħ"
      ],
      [
        "æĿ",
        "¡"
      ],
      [
        "ç¤¾",
        "ä¼ļ"
      ],
      [
        "å®ī",
        "åħ¨"
      ],
      [
        "1",
        "0"
      ],
      [
        "è¿Ĳ",
        "åĬ¨"
      ],
      [
        "è§",
        "ģ"
      ],
      [
        "çī",
        "ĩ"
      ],
      [
        "åĲ",
        "¬"
      ],
      [
        "èº«",
        "ä½ĵ"
      ],
      [
        "ç»Ļ",
        "æĪĳ"
      ],
      [
        "è¯",
        "Ĺ"
      ],
      [
        "åıĳ",
        "çİ°"
      ],
      [
        "èĩ",
        "³"
      ],
      [
        "æ",
        "Ĳ"
      ],
      [
        "çļĦæĥ",
        "ħ"
      ],
      [
        "æ¼",
        "Ķ"
      ],
      [
        "éħ",
        "į"
      ],
      [
        "éļ",
        "ı"
      ],
      [
        "åıĺ",
        "åĮĸ"
      ],
      [
        "çİ°",
        "åľ¨"
      ],
      [
        "ãĢĤ",
        "âĢĿ"
      ],
      [
        "æī",
        "ĵ"
      ],
      [
        "ç§ĳ",
        "æĬĢ"
      ],
      [
        "åħ¶",
        "ä¸Ń"
      ],
      [
        "ç»",
        "ĥ"
      ],
      [
        "åº",
        "ı"
      ],
      [
        "æĶ",
        "¶"
      ],
      [
        "çĬ",
        "¶"
      ],
      [
        "è®¤",
        "ä¸º"
      ],
      [
        "å¼",
        "ł"
      ],
      [
        "èĤ",
        "²"
      ],
      [
        "å¤©",
        "æ°Ķ"
      ],
      [
        "ä¸",
        "½"
      ],
      [
        "ç´",
        "¢"
      ],
      [
        "éĤ£",
        "ä¹Ī"
      ],
      [
        "æĪĳä»¬",
        "çļĦ"
      ],
      [
        "åĳ",
        "½"
      ],
      [
        "ä¹ĭ",
        "éĹ´"
      ],
      [
        "äº",
        "«"
      ],
      [
        "æĬ",
        "Ĭ"
      ],
      [
        "ç²",
        "¾"
      ],
      [
        "è®",
        "°"
      ],
      [
        "æ¶",
        "Ī"
      ],
      [
        "¹",
        "æŀľ"
      ],
      [
        "æ",
        "ħ"
      ],
      [
        "åħ",
        "ħ"
      ],
      [
        "èĥ½",
        "åĬĽ"
      ],
      [
        "çĽ¸",
        "åħ³"
      ],
      [
        "èĭ",
        "¹æŀľ"
      ],
      [
        "äº",
        "Į"
      ],
      [
        "ä½ł",
        "çļĦ"
      ],
      [
        "åİĨ",
        "åı²"
      ],
      [
        "æĶ",
        "¿"
      ],
      [
        "åĲ",
        "¸"
      ],
      [
        "å¾Ī",
        "å¤ļ"
      ],
      [
        "åı",
        "¤"
      ],
      [
        "çŃ",
        "ĸ"
      ],
      [
        "å",
        "¡"
      ],
      [
        "å¸¦",
        "æĿ¥"
      ],
      [
        "ç",
        "ı"
      ],
      [
        "æ",
        "¤"
      ],
      [
        "æĳ",
        "ĺè¦ģ"
      ],
      [
        "åĽ",
        "Ń"
      ],
      [
        "åħ·",
        "æľī"
      ],
      [
        "è´",
        "Ń"
      ],
      [
        "ç",
        "¢"
      ],
      [
        "åħ",
        "´"
      ],
      [
        "éĺ",
        "Ł"
      ],
      [
        "å¸",
        "Ī"
      ],
      [
        "ä½",
        "İ"
      ],
      [
        "çĮ",
        "«"
      ],
      [
        "å¤",
        "±"
      ],
      [
        "éĹ",
        "¨"
      ],
      [
        "æ¬",
        "¾"
      ],
      [
        "ç»",
        "´"
      ],
      [
        "æ²",
        "»"
      ],
      [
        "åį",
        "³"
      ],
      [
        "ç»Ļå®ļ",
        "çļĦ"
      ],
      [
        "éĹ",
        "»"
      ],
      [
        "ç§ĳ",
        "åŃ¦"
      ],
      [
        "ç§",
        "°"
      ],
      [
        "å¸",
        "ĥ"
      ],
      [
        "æ",
        "¢"
      ],
      [
        "çĭ",
        "¬"
      ],
      [
        "åħ",
        "į"
      ],
      [
        "æŃ",
        "Į"
      ],
      [
        "è¯",
        "ī"
      ],
      [
        "éĩ",
        "Ĭ"
      ],
      [
        "äº",
        "Ĵ"
      ],
      [
        "èį",
        "Ĳ"
      ],
      [
        "å",
        "ĭ"
      ],
      [
        "éŁ³",
        "ä¹Ĳ"
      ],
      [
        "ç»Ļ",
        "åĩº"
      ],
      [
        "å°",
        "Ŀ"
      ],
      [
        "çļĦæ",
        "Ħ"
      ],
      [
        "¦",
        "Ĥ"
      ],
      [
        "çŃĶ",
        "æ¡Ī"
      ],
      [
        "æī",
        "į"
      ],
      [
        "æĿ",
        "Ĳ"
      ],
      [
        "è¿Ļ",
        "ç§į"
      ],
      [
        "è®¾",
        "è®¡"
      ],
      [
        "ç§¯",
        "æŀģ"
      ],
      [
        "ç»",
        "į"
      ],
      [
        "å¼Ģ",
        "å§ĭ"
      ],
      [
        "ä»»",
        "åĬ¡"
      ],
      [
        "èĲ",
        "¥"
      ],
      [
        "æĿ",
        "¾"
      ],
      [
        "äºĨ",
        "è§£"
      ],
      [
        "éĽ",
        "Ĩ"
      ],
      [
        "è¡¨",
        "è¾¾"
      ],
      [
        "ä»ĭ",
        "ç»į"
      ],
      [
        "ä¸Ń",
        "æıĲåıĸ"
      ],
      [
        "åı¥",
        "è¯Ŀ"
      ],
      [
        "çļĦ",
        "å½±åĵį"
      ],
      [
        "å¯¼",
        "èĩ´"
      ],
      [
        "å¯",
        "Į"
      ],
      [
        "è¯",
        "¯"
      ],
      [
        "åŃ",
        "£"
      ],
      [
        "å¿",
        "ħ"
      ],
      [
        "å",
        "¨"
      ],
      [
        "è",
        "Ľ"
      ],
      [
        "å¯¹",
        "äºİ"
      ],
      [
        "æ¨¡",
        "åŀĭ"
      ],
      [
        "åħ·",
        "ä½ĵ"
      ],
      [
        "è®¡ç®Ĺ",
        "æľº"
      ],
      [
        "èĭ",
        "±"
      ],
      [
        "çĶ",
        "·"
      ],
      [
        "æĥħ",
        "æĦŁ"
      ],
      [
        "æľºåĻ¨",
        "åŃ¦ä¹ł"
      ],
      [
        "çĲĨ",
        "è§£"
      ],
      [
        "æİ¨",
        "èįĲ"
      ],
      [
        "çļĦæ",
        "Ĭ"
      ],
      [
        "è½",
        "¬"
      ],
      [
        "å®ŀ",
        "çİ°"
      ],
      [
        "æľĢ",
        "è¿ĳ"
      ],
      [
        "æĸ°",
        "çļĦ"
      ],
      [
        "æĺ¯",
        "åĲ¦"
      ],
      [
        "éĢļ",
        "å¸¸"
      ],
      [
        "åı",
        "·"
      ],
      [
        "åį",
        "ĩ"
      ],
      [
        "åİ",
        "ĭ"
      ],
      [
        "è®",
        "¨"
      ],
      [
        "é¦",
        "Ļ"
      ],
      [
        "éĻ",
        "¤"
      ],
      [
        "èµ",
        "Ľ"
      ],
      [
        "è®",
        "²"
      ],
      [
        "åĬ",
        "¿"
      ],
      [
        "ä¸",
        "ĵ"
      ],
      [
        "ä»Ĭ",
        "å¤©"
      ],
      [
        "æĽ´",
        "å¥½"
      ],
      [
        "èĤ",
        "ī"
      ],
      [
        "é",
        "²"
      ],
      [
        "åĮ",
        "Ĺ"
      ],
      [
        "ä¸į",
        "æĸŃ"
      ],
      [
        "åĲĦ",
        "ç§į"
      ],
      [
        "ä¿",
        "®"
      ],
      [
        "æĿ",
        "İ"
      ],
      [
        "è´",
        "¹"
      ],
      [
        "é»",
        "ĳ"
      ],
      [
        "éĶ",
        "Ģ"
      ],
      [
        "æ°",
        "ĳ"
      ],
      [
        "åľ°",
        "çĲĥ"
      ],
      [
        "è®¡",
        "åĪĴ"
      ],
      [
        "å¸Ĥ",
        "åľº"
      ],
      [
        "è£",
        "ħ"
      ],
      [
        "åį",
        "İ"
      ],
      [
        "æĪ",
        "ı"
      ],
      [
        "åį",
        "ģ"
      ],
      [
        "åħ³éĶ®",
        "è¯į"
      ],
      [
        "åĳĬ",
        "è¯ī"
      ],
      [
        "è¯",
        "ģ"
      ],
      [
        "æŁ",
        "ĵ"
      ],
      [
        "åħ",
        "»"
      ],
      [
        "çļĦ",
        "éĹ®é¢ĺ"
      ],
      [
        "æīĢ",
        "æľī"
      ],
      [
        "ä¸Ģ",
        "æ®µ"
      ],
      [
        "é©",
        "¬"
      ],
      [
        "è",
        "ħ"
      ],
      [
        "åĸ",
        "Ħ"
      ],
      [
        "åĽ",
        "´"
      ],
      [
        "æīĢ",
        "ä»¥"
      ],
      [
        "çĶ¨",
        "æĪ·"
      ],
      [
        "æ³¨",
        "æĦı"
      ],
      [
        "èī",
        "º"
      ],
      [
        "æĻ",
        "ļ"
      ],
      [
        "ç»",
        "Ī"
      ],
      [
        "æĪĳ",
        "çļĦ"
      ],
      [
        "åįķ",
        "è¯į"
      ],
      [
        "å¯",
        "»"
      ],
      [
        "è¯Ĩ",
        "åĪ«"
      ],
      [
        "éĢĤ",
        "åĲĪ"
      ],
      [
        "å¤",
        "ı"
      ],
      [
        "ä¸Ģ",
        "èµ·"
      ],
      [
        "æİ",
        "§"
      ],
      [
        "ç¦",
        "»"
      ],
      [
        "å¸",
        "Į"
      ],
      [
        "æŃ£",
        "åľ¨"
      ],
      [
        "ç",
        "ª"
      ],
      [
        "A",
        "I"
      ],
      [
        "æĪĳä»¬",
        "åı¯ä»¥"
      ],
      [
        "èĳ",
        "Ĺ"
      ],
      [
        "å¾",
        "ĭ"
      ],
      [
        "éĻ",
        "ħ"
      ],
      [
        "éĺ",
        "²"
      ],
      [
        "æĸ°",
        "éĹ»"
      ],
      [
        "æ¯Ķ",
        "å¦Ĥ"
      ],
      [
        "è¶",
        "ħ"
      ],
      [
        "ä»ĸ",
        "çļĦ"
      ],
      [
        "åĽ",
        "Ľ"
      ],
      [
        "è¿",
        "ľ"
      ],
      [
        "å¤ª",
        "éĺ³"
      ],
      [
        "åŃ",
        "©"
      ],
      [
        "è¦ģ",
        "æ±Ĥ"
      ],
      [
        "çŁ¥",
        "éģĵ"
      ],
      [
        "çļĦ",
        "æĺ¯"
      ],
      [
        "æĹł",
        "æ³ķ"
      ],
      [
        "å°",
        "Ķ"
      ],
      [
        "å¹¶",
        "ä¸Ķ"
      ],
      [
        "ä¸Ģ",
        "ç§į"
      ],
      [
        "å·",
        "§"
      ],
      [
        "æĦŁ",
        "åĪ°"
      ],
      [
        "æŀ",
        "Ĺ"
      ],
      [
        "æ³",
        "Ľ"
      ],
      [
        "å£",
        "°"
      ],
      [
        "æ",
        "Ĵ"
      ],
      [
        "èµ",
        "°"
      ],
      [
        "åĳ",
        "¢"
      ],
      [
        "åħ³",
        "ç³»"
      ],
      [
        "æŁ",
        "Ĳ"
      ],
      [
        "å°ı",
        "è¯´"
      ],
      [
        "çĦ¶",
        "åĲİ"
      ],
      [
        "åı",
        "¦"
      ],
      [
        "ä»",
        "ħ"
      ],
      [
        "ï¼ļ",
        "âĢľ"
      ],
      [
        "è´",
        "Ł"
      ],
      [
        "æĹħ",
        "æ¸¸"
      ],
      [
        "è¿ĩ",
        "ç¨ĭ"
      ],
      [
        "åį",
        "Ĺ"
      ],
      [
        "æ¯ı",
        "ä¸ª"
      ],
      [
        "å£",
        "«"
      ],
      [
        "ç½",
        "®"
      ],
      [
        "åŃĺ",
        "åľ¨"
      ],
      [
        "æĢ»",
        "ç»ĵ"
      ],
      [
        "å¤§",
        "çļĦ"
      ],
      [
        "åİ",
        "ħ"
      ],
      [
        "èģ",
        "Į"
      ],
      [
        "è§£",
        "éĩĬ"
      ],
      [
        "èĢĥ",
        "èĻĳ"
      ],
      [
        "å¾",
        "·"
      ],
      [
        "æĪĲ",
        "åĬŁ"
      ],
      [
        "æĭ",
        "ī"
      ],
      [
        "è´¨",
        "éĩı"
      ],
      [
        "è¾",
        "¹"
      ],
      [
        "æĹ",
        "©"
      ],
      [
        "çļĦæ",
        "°"
      ],
      [
        "ç®¡",
        "çĲĨ"
      ],
      [
        "éĻ",
        "į"
      ],
      [
        "èĽ",
        "ĭ"
      ],
      [
        "çļĦæ",
        "Ģ"
      ],
      [
        "åŃ¦",
        "çĶŁ"
      ],
      [
        "æĺ",
        "¾"
      ],
      [
        "ĳ",
        "æĪĺ"
      ],
      [
        "å",
        "Ħ"
      ],
      [
        "æĪ",
        "¿"
      ],
      [
        "çŃī",
        "çŃī"
      ],
      [
        "è",
        "ŀ"
      ],
      [
        "ª",
        "æĸ½"
      ],
      [
        "æ®µ",
        "èĲ½"
      ],
      [
        "è¡Į",
        "ä¸º"
      ],
      [
        "ç¾İ",
        "åĽ½"
      ],
      [
        "ä¸",
        "ľ"
      ],
      [
        "æĪĳ",
        "æĥ³"
      ],
      [
        "éĶĻ",
        "è¯¯"
      ],
      [
        "åĮ»",
        "çĶŁ"
      ],
      [
        "å¢ŀ",
        "åĬł"
      ],
      [
        "ä¸Ģ",
        "ç¯ĩ"
      ],
      [
        "è¾",
        "ĳ"
      ],
      [
        "ç",
        "Ĩ"
      ],
      [
        "ä¼",
        "¼"
      ],
      [
        "å°Ŀ",
        "è¯ķ"
      ],
      [
        "äº",
        "Ķ"
      ],
      [
        "çħ",
        "§"
      ],
      [
        "å¯¹",
        "è¯Ŀ"
      ],
      [
        "å®Į",
        "æĪĲ"
      ],
      [
        "æ",
        "¦Ĥ"
      ],
      [
        "å¯",
        "Ĩ"
      ],
      [
        "çİ",
        "©"
      ],
      [
        "æĺ¯",
        "ä»Ģä¹Ī"
      ],
      [
        "å¹¿",
        "æ³Ľ"
      ],
      [
        "ç±",
        "³"
      ],
      [
        "ä¸ĭ",
        "éĿ¢"
      ],
      [
        "ä½ľ",
        "ä¸º"
      ],
      [
        "åĪ©",
        "çĶ¨"
      ],
      [
        "çĶ",
        "»"
      ],
      [
        "è¿Ļ",
        "æ®µ"
      ],
      [
        "ä¸įåĲĮ",
        "çļĦ"
      ],
      [
        "çģ",
        "«"
      ],
      [
        "èĩª",
        "åĬ¨"
      ],
      [
        "æľĢ",
        "åĲİ"
      ],
      [
        "é¥®",
        "é£Ł"
      ],
      [
        "æĭ",
        "¥"
      ],
      [
        "æļ",
        "ĸ"
      ],
      [
        "çİ",
        "ĭ"
      ],
      [
        "éģ",
        "¿"
      ],
      [
        "åĴ",
        "ĸ"
      ],
      [
        "å½ĵ",
        "çĦ¶"
      ],
      [
        "æ",
        "¿"
      ],
      [
        "é£Ł",
        "çī©"
      ],
      [
        "è®",
        "Ń"
      ],
      [
        "çļĦ",
        "åıĳå±ķ"
      ],
      [
        "å®",
        "³"
      ],
      [
        "å¾Ĺ",
        "åĪ°"
      ],
      [
        "æµ",
        "İ"
      ],
      [
        "åı",
        "°"
      ],
      [
        "æĽ´å¥½",
        "åľ°"
      ],
      [
        "åĽ",
        "¢"
      ],
      [
        "ç¡®",
        "ä¿Ŀ"
      ],
      [
        "å¿",
        "µ"
      ],
      [
        "åı¯èĥ½",
        "ä¼ļ"
      ],
      [
        "çļĦ",
        "åľ°"
      ],
      [
        "çļĦæķ",
        "°"
      ],
      [
        "ä¼",
        "ģ"
      ],
      [
        "çļĦ",
        "ä¿¡æģ¯"
      ],
      [
        "ãĢĤ",
        "\\"
      ],
      [
        "ä»»",
        "ä½ķ"
      ],
      [
        "æ°Ķ",
        "åĢĻ"
      ],
      [
        "äº",
        "ļ"
      ],
      [
        "ç®Ĺ",
        "æ³ķ"
      ],
      [
        "åķ",
        "¡"
      ],
      [
        "èŀ",
        "į"
      ],
      [
        "çļĦ",
        "åºĶçĶ¨"
      ],
      [
        "äº",
        "¬"
      ],
      [
        "ä¸į",
        "æĺ¯"
      ],
      [
        "æłĩ",
        "é¢ĺ"
      ],
      [
        "äº§",
        "çĶŁ"
      ],
      [
        "éĻ",
        "Ĳ"
      ],
      [
        "æĤ¨",
        "çļĦ"
      ],
      [
        "åĴĸ",
        "åķ¡"
      ],
      [
        "æĥħ",
        "åĨµ"
      ],
      [
        "æ´",
        "ģ"
      ],
      [
        "æ",
        "ĵ"
      ],
      [
        "å®",
        "¤"
      ],
      [
        "å¸Į",
        "æľĽ"
      ],
      [
        "æķ",
        "ħäºĭ"
      ],
      [
        "èį",
        "ī"
      ],
      [
        "èİ·",
        "å¾Ĺ"
      ],
      [
        "æį",
        "¢"
      ],
      [
        "è¿ĺ",
        "æľī"
      ],
      [
        "å",
        "ł"
      ],
      [
        "éĽ",
        "¨"
      ],
      [
        "äºº",
        "çļĦ"
      ],
      [
        "ç»",
        "ľ"
      ],
      [
        "äº¤",
        "éĢļ"
      ],
      [
        "æĢ",
        "İ"
      ],
      [
        "å·",
        "´"
      ],
      [
        "è¾ĵ",
        "åħ¥"
      ],
      [
        "çĽ®",
        "æłĩ"
      ],
      [
        "åĦ",
        "¿"
      ],
      [
        "ç»ı",
        "æµİ"
      ],
      [
        "è¿Ļ",
        "æł·"
      ],
      [
        "çĶŁæĪĲ",
        "ä¸Ģä¸ª"
      ],
      [
        "å¹",
        "²"
      ],
      [
        "é»",
        "Ħ"
      ],
      [
        "è¡¨",
        "ç¤º"
      ],
      [
        "é¦ĸ",
        "åħĪ"
      ],
      [
        "çĶ¨",
        "äºİ"
      ],
      [
        "åı¯ä»¥",
        "å¸®åĬ©"
      ],
      [
        "éħ",
        "Ĵ"
      ],
      [
        "è¡",
        "£"
      ],
      [
        "é£",
        "ŀ"
      ],
      [
        "éĥ½",
        "æĺ¯"
      ],
      [
        "ç³ĸ",
        "æŀľ"
      ],
      [
        "ä¼",
        "Ĺ"
      ],
      [
        "å¾",
        "ģ"
      ],
      [
        "æľī",
        "æķĪ"
      ],
      [
        "é¤Ĳ",
        "åİħ"
      ],
      [
        "çļĦ",
        "ä¸»è¦ģ"
      ],
      [
        "ä½ł",
        "åı¯ä»¥"
      ],
      [
        "éĺ",
        "ħ"
      ],
      [
        "åĮħ",
        "åĲ«"
      ],
      [
        "çī",
        "Ľ"
      ],
      [
        "çļĦæ",
        "ł"
      ],
      [
        "ç©",
        "¿"
      ],
      [
        "åº",
        "Ĺ"
      ],
      [
        "æĹħ",
        "è¡Į"
      ],
      [
        "æī¾",
        "åĪ°"
      ],
      [
        "å¾",
        "Ģ"
      ],
      [
        "æķĻ",
        "èĤ²"
      ],
      [
        "å±",
        "ŀ"
      ],
      [
        "åº",
        "Ń"
      ],
      [
        "ç»ĵ",
        "æŀľ"
      ],
      [
        "ç®Ģ",
        "åįķ"
      ],
      [
        "¡",
        "æŁĵ"
      ],
      [
        "éľĢ",
        "æ±Ĥ"
      ],
      [
        "æ¸¸",
        "æĪı"
      ],
      [
        "æ¿",
        "Ģ"
      ],
      [
        "çļĦ",
        "éĩįè¦ģ"
      ],
      [
        "éĥ¨",
        "åĪĨ"
      ],
      [
        "é",
        "º"
      ],
      [
        "åĳĬè¯ī",
        "æĪĳ"
      ],
      [
        "ä½¿",
        "åħ¶"
      ],
      [
        "åĿ",
        "ĩ"
      ],
      [
        "éģ¿",
        "åħį"
      ],
      [
        "éĩĩ",
        "åıĸ"
      ],
      [
        "æ",
        "©"
      ],
      [
        "å±",
        "ħ"
      ],
      [
        "æ",
        "½"
      ],
      [
        "è§Ĥ",
        "çĤ¹"
      ],
      [
        "åĩł",
        "ä¸ª"
      ],
      [
        "æİ",
        "ªæĸ½"
      ],
      [
        "ç½ĳ",
        "ç»ľ"
      ],
      [
        "åĪ¶",
        "ä½ľ"
      ],
      [
        "çī",
        "Į"
      ],
      [
        "åĩĨ",
        "ç¡®"
      ],
      [
        "ä¹Ł",
        "æĺ¯"
      ],
      [
        "æľī",
        "åħ³"
      ],
      [
        "å¾",
        "®"
      ],
      [
        "ä»",
        "¤"
      ],
      [
        "äº",
        "ī"
      ],
      [
        "æĮģ",
        "ç»Ń"
      ],
      [
        "æĶ¯",
        "æĮģ"
      ],
      [
        "èĥ½",
        "æºĲ"
      ],
      [
        "ä¸",
        "ĩ"
      ],
      [
        "ä½ĵ",
        "éªĮ"
      ],
      [
        "å",
        "ª"
      ],
      [
        "é",
        "±"
      ],
      [
        "èµ·",
        "æĿ¥"
      ],
      [
        "äºĨ",
        "ä¸Ģä¸ª"
      ],
      [
        "é±",
        "¼"
      ],
      [
        "ä½ľ",
        "çĶ¨"
      ],
      [
        "åī",
        "§"
      ],
      [
        "ä¼ģ",
        "ä¸ļ"
      ],
      [
        "è¡¨",
        "çİ°"
      ],
      [
        "éĩįè¦ģ",
        "çļĦ"
      ],
      [
        "ç«",
        "Ļ"
      ],
      [
        "ç»",
        "¿"
      ],
      [
        "ä¸į",
        "èĥ½"
      ],
      [
        "çĽ",
        "Ĭ"
      ],
      [
        "é",
        "¼"
      ],
      [
        "ç",
        "ĳ"
      ],
      [
        "æł",
        "ĳ"
      ],
      [
        "åıĳ",
        "çĶŁ"
      ],
      [
        "ä»ĸä»¬",
        "çļĦ"
      ],
      [
        "ä¹Ł",
        "åı¯ä»¥"
      ],
      [
        "0",
        "0"
      ],
      [
        "è",
        "ĵ"
      ],
      [
        "èī",
        "¯"
      ],
      [
        "éĺħ",
        "è¯»"
      ],
      [
        "åĪ",
        "ĩ"
      ],
      [
        "å°ı",
        "çº¢"
      ],
      [
        "èĩªçĦ¶",
        "è¯Ńè¨Ģ"
      ],
      [
        "æ¤",
        "į"
      ],
      [
        "¾",
        "çĹħ"
      ],
      [
        "é",
        "¾"
      ],
      [
        "çĶ±",
        "äºİ"
      ],
      [
        "çİ°",
        "ä»£"
      ],
      [
        "ä¸ī",
        "ä¸ª"
      ],
      [
        "å¤",
        "ľ"
      ],
      [
        "åĵª",
        "äºĽ"
      ],
      [
        "åĪ",
        "¤"
      ],
      [
        "ç¤¾",
        "äº¤"
      ],
      [
        "å®",
        "Ŀ"
      ],
      [
        "å¾",
        "ħ"
      ],
      [
        "ç¬",
        "¦"
      ],
      [
        "æ²",
        "¹"
      ],
      [
        "æĭ¥",
        "æľī"
      ],
      [
        "åŁº",
        "äºİ"
      ],
      [
        "å¥",
        "¶"
      ],
      [
        "âĢĿ",
        "ï¼Į"
      ],
      [
        "æ",
        "¹"
      ],
      [
        "åĬł",
        "åħ¥"
      ],
      [
        "åħ³",
        "æ³¨"
      ],
      [
        "çº",
        "§"
      ],
      [
        "å¥",
        "ĩ"
      ],
      [
        "è¿ĺ",
        "æĺ¯"
      ],
      [
        "èī²",
        "çļĦ"
      ],
      [
        "ç»",
        "ĩ"
      ],
      [
        "è¯",
        "Ĭ"
      ],
      [
        "æ±",
        "¡æŁĵ"
      ],
      [
        "åı",
        "Ī"
      ],
      [
        "å¦Ĥæŀľ",
        "ä½ł"
      ],
      [
        "é¢",
        "ľ"
      ],
      [
        "éģ",
        "ĩ"
      ],
      [
        "åĬ",
        "ª"
      ],
      [
        "ä¸",
        "¾"
      ],
      [
        "åº",
        "ľ"
      ],
      [
        "ï¼Ł",
        "</"
      ],
      [
        "åĿ",
        "Ĺ"
      ],
      [
        "é¦",
        "Ĩ"
      ],
      [
        "åĩº",
        "çİ°"
      ],
      [
        "è¿",
        "ŀ"
      ],
      [
        "çļĦ",
        "æĸĩç«ł"
      ],
      [
        "ä¸",
        "°"
      ],
      [
        "é¸",
        "¡"
      ],
      [
        "ç±»",
        "åŀĭ"
      ],
      [
        "ä»¥ä¸ĭ",
        "åı¥åŃĲ"
      ],
      [
        "ç¡®",
        "å®ļ"
      ],
      [
        "åĪ",
        "»"
      ],
      [
        "å®¶",
        "åºŃ"
      ],
      [
        "æĮ",
        "ĳæĪĺ"
      ],
      [
        "æĺ",
        "¥"
      ],
      [
        "å®¢",
        "æĪ·"
      ],
      [
        "èµĦ",
        "æºĲ"
      ],
      [
        "çļĦæ",
        "İ"
      ],
      [
        "åĬª",
        "åĬĽ"
      ],
      [
        "åĶ",
        "®"
      ],
      [
        "è½",
        "¯"
      ],
      [
        "ç¿",
        "»"
      ],
      [
        "èĪ",
        "Ĵ"
      ],
      [
        "èį",
        "¯"
      ],
      [
        "è®Ń",
        "ç»ĥ"
      ],
      [
        "æİ§",
        "åĪ¶"
      ],
      [
        "èĻ",
        "½"
      ],
      [
        "æľī",
        "è¶£"
      ],
      [
        "éĿ",
        "Ļ"
      ],
      [
        "æĢ§",
        "åĴĮ"
      ],
      [
        "æķ",
        "£"
      ],
      [
        "è¿",
        "½"
      ],
      [
        "åĬŁ",
        "èĥ½"
      ],
      [
        "è¿Ļ",
        "æĺ¯"
      ],
      [
        "ä»İ",
        "èĢĮ"
      ],
      [
        "èĦ",
        "ĳ"
      ],
      [
        "çļĦæĬ",
        "Ģ"
      ],
      [
        "æŃ£",
        "ç¡®"
      ],
      [
        "åıĹ",
        "åĪ°"
      ],
      [
        "æĸ¹",
        "æ¡Ī"
      ],
      [
        "çļĦ",
        "åı¥åŃĲ"
      ],
      [
        "çļĦæ",
        "Ļ"
      ],
      [
        "ä¸º",
        "äºĨ"
      ],
      [
        "ç§",
        "ĭ"
      ],
      [
        "é¸",
        "Ł"
      ],
      [
        "æ£",
        "Ģ"
      ],
      [
        "ä¸",
        "¥"
      ],
      [
        "æĬ",
        "ķ"
      ],
      [
        "é",
        "Ń"
      ],
      [
        "è",
        "Ń"
      ],
      [
        "è§Ĵ",
        "èī²"
      ],
      [
        "æ²»",
        "çĸĹ"
      ],
      [
        "æĤ¨",
        "åı¯ä»¥"
      ],
      [
        "åħ",
        "¸"
      ],
      [
        "çĸ",
        "¾çĹħ"
      ],
      [
        "é¢Ħ",
        "æµĭ"
      ],
      [
        "èīº",
        "æľ¯"
      ],
      [
        "å±",
        "Ĥ"
      ],
      [
        "æ²",
        "Ļ"
      ],
      [
        "çļĦç",
        "¾"
      ],
      [
        "å½",
        "Ĵ"
      ],
      [
        "åİĭ",
        "åĬĽ"
      ],
      [
        "ç¨ĭ",
        "åºı"
      ],
      [
        "æ¯Ķ",
        "è¾ĥ"
      ],
      [
        "æķĪ",
        "çİĩ"
      ],
      [
        "æİ¢",
        "ç´¢"
      ],
      [
        "åģ",
        "ĩ"
      ],
      [
        "äº",
        "ĳ"
      ],
      [
        "è¯",
        "¦"
      ],
      [
        "äººå·¥æĻºèĥ½",
        "æĬĢæľ¯"
      ],
      [
        "äºĭ",
        "ä»¶"
      ],
      [
        "èĮ",
        "ĥ"
      ],
      [
        "è",
        "Ķ"
      ],
      [
        "ä¸Ĭ",
        "çļĦ"
      ],
      [
        "æĤ",
        "£"
      ],
      [
        "æĿ",
        "¯"
      ],
      [
        "è´Ń",
        "ä¹°"
      ],
      [
        "ä¼ł",
        "ç»Ł"
      ],
      [
        "æĿ",
        "Ĥ"
      ],
      [
        "çļĦæĦ",
        "ı"
      ],
      [
        "çŁ",
        "³"
      ],
      [
        "èĻ½",
        "çĦ¶"
      ],
      [
        "éĻ",
        "¢"
      ],
      [
        "æľĢ",
        "ç»Ī"
      ],
      [
        "é",
        "Ĩ"
      ],
      [
        "ä¸į",
        "ä»ħ"
      ],
      [
        "æĿ¥",
        "è¶Ĭ"
      ],
      [
        "æ°ĶåĢĻ",
        "åıĺåĮĸ"
      ],
      [
        "çĶŁ",
        "çī©"
      ],
      [
        "çĶŁ",
[...]
